#include "large_test.h"

#define MODEL_LENGTH 8288

const unsigned int model_tflite_len = MODEL_LENGTH;


unsigned char model64x64_1[MODEL_LENGTH];

const unsigned char saved[] = {
  0x1c, 0x00, 0x00, 0x00, 0x54, 0x46, 0x4c, 0x33, 0x14, 0x00, 0x20, 0x00,
  0x04, 0x00, 0x08, 0x00, 0x0c, 0x00, 0x10, 0x00, 0x14, 0x00, 0x00, 0x00,
  0x18, 0x00, 0x1c, 0x00, 0x14, 0x00, 0x00, 0x00, 0x03, 0x00, 0x00, 0x00,
  0x18, 0x00, 0x00, 0x00, 0x20, 0x00, 0x00, 0x00, 0x2c, 0x01, 0x00, 0x00,
  0x20, 0x00, 0x00, 0x00, 0xd4, 0x00, 0x00, 0x00, 0x50, 0x00, 0x00, 0x00,
  0x02, 0x00, 0x00, 0x00, 0xe8, 0x03, 0x00, 0x00, 0xd8, 0x01, 0x00, 0x00,
  0x01, 0x00, 0x00, 0x00, 0x30, 0x01, 0x00, 0x00, 0x0d, 0x00, 0x00, 0x00,
  0x08, 0x20, 0x00, 0x00, 0x04, 0x20, 0x00, 0x00, 0x34, 0x1f, 0x00, 0x00,
  0x64, 0x1e, 0x00, 0x00, 0xa4, 0x1d, 0x00, 0x00, 0xd8, 0x16, 0x00, 0x00,
  0x88, 0x06, 0x00, 0x00, 0x38, 0x04, 0x00, 0x00, 0xe8, 0x1f, 0x00, 0x00,
  0xe4, 0x1f, 0x00, 0x00, 0xe0, 0x1f, 0x00, 0x00, 0xdc, 0x1f, 0x00, 0x00,
  0xb8, 0x00, 0x00, 0x00, 0x01, 0x00, 0x00, 0x00, 0x10, 0x00, 0x00, 0x00,
  0x00, 0x00, 0x0a, 0x00, 0x10, 0x00, 0x0c, 0x00, 0x08, 0x00, 0x04, 0x00,
  0x0a, 0x00, 0x00, 0x00, 0x0c, 0x00, 0x00, 0x00, 0x1c, 0x00, 0x00, 0x00,
  0x20, 0x00, 0x00, 0x00, 0x0f, 0x00, 0x00, 0x00, 0x73, 0x65, 0x72, 0x76,
  0x69, 0x6e, 0x67, 0x5f, 0x64, 0x65, 0x66, 0x61, 0x75, 0x6c, 0x74, 0x00,
  0x01, 0x00, 0x00, 0x00, 0x14, 0x00, 0x00, 0x00, 0x01, 0x00, 0x00, 0x00,
  0x28, 0x00, 0x00, 0x00, 0x08, 0x00, 0x0c, 0x00, 0x08, 0x00, 0x04, 0x00,
  0x08, 0x00, 0x00, 0x00, 0x0a, 0x00, 0x00, 0x00, 0x04, 0x00, 0x00, 0x00,
  0x0a, 0x00, 0x00, 0x00, 0x61, 0x63, 0x74, 0x69, 0x76, 0x61, 0x74, 0x69,
  0x6f, 0x6e, 0x00, 0x00, 0x6a, 0xe1, 0xff, 0xff, 0x04, 0x00, 0x00, 0x00,
  0x07, 0x00, 0x00, 0x00, 0x69, 0x6e, 0x70, 0x75, 0x74, 0x5f, 0x32, 0x00,
  0x01, 0x00, 0x00, 0x00, 0x0c, 0x00, 0x00, 0x00, 0x08, 0x00, 0x0c, 0x00,
  0x04, 0x00, 0x08, 0x00, 0x08, 0x00, 0x00, 0x00, 0x08, 0x00, 0x00, 0x00,
  0x0c, 0x00, 0x00, 0x00, 0x13, 0x00, 0x00, 0x00, 0x6d, 0x69, 0x6e, 0x5f,
  0x72, 0x75, 0x6e, 0x74, 0x69, 0x6d, 0x65, 0x5f, 0x76, 0x65, 0x72, 0x73,
  0x69, 0x6f, 0x6e, 0x00, 0xb2, 0xe1, 0xff, 0xff, 0x04, 0x00, 0x00, 0x00,
  0x10, 0x00, 0x00, 0x00, 0x31, 0x2e, 0x31, 0x34, 0x2e, 0x30, 0x00, 0x00,
  0x00, 0x00, 0x00, 0x00, 0x00, 0x00, 0x00, 0x00, 0x0f, 0x00, 0x00, 0x00,
  0x4d, 0x4c, 0x49, 0x52, 0x20, 0x43, 0x6f, 0x6e, 0x76, 0x65, 0x72, 0x74,
  0x65, 0x64, 0x2e, 0x00, 0x00, 0x00, 0x0e, 0x00, 0x18, 0x00, 0x04, 0x00,
  0x08, 0x00, 0x0c, 0x00, 0x10, 0x00, 0x14, 0x00, 0x0e, 0x00, 0x00, 0x00,
  0x14, 0x00, 0x00, 0x00, 0x40, 0x00, 0x00, 0x00, 0x44, 0x00, 0x00, 0x00,
  0x48, 0x00, 0x00, 0x00, 0x58, 0x00, 0x00, 0x00, 0x0b, 0x00, 0x00, 0x00,
  0x6c, 0x1e, 0x00, 0x00, 0x20, 0x1e, 0x00, 0x00, 0xb0, 0x1d, 0x00, 0x00,
  0xf0, 0x1c, 0x00, 0x00, 0x24, 0x1c, 0x00, 0x00, 0x54, 0x15, 0x00, 0x00,
  0x04, 0x05, 0x00, 0x00, 0x84, 0x02, 0x00, 0x00, 0xa0, 0x01, 0x00, 0x00,
  0xf4, 0x00, 0x00, 0x00, 0x6c, 0x00, 0x00, 0x00, 0x01, 0x00, 0x00, 0x00,
  0x00, 0x00, 0x00, 0x00, 0x01, 0x00, 0x00, 0x00, 0x0a, 0x00, 0x00, 0x00,
  0x04, 0x00, 0x00, 0x00, 0x08, 0x02, 0x00, 0x00, 0x48, 0x01, 0x00, 0x00,
  0xa0, 0x00, 0x00, 0x00, 0x18, 0x00, 0x00, 0x00, 0x04, 0x00, 0x00, 0x00,
  0x6d, 0x61, 0x69, 0x6e, 0x00, 0x00, 0x0a, 0x00, 0x10, 0x00, 0x04, 0x00,
  0x08, 0x00, 0x0c, 0x00, 0x0a, 0x00, 0x00, 0x00, 0x01, 0x00, 0x00, 0x00,
  0x10, 0x00, 0x00, 0x00, 0x04, 0x00, 0x00, 0x00, 0x01, 0x00, 0x00, 0x00,
  0x0a, 0x00, 0x00, 0x00, 0x01, 0x00, 0x00, 0x00, 0x09, 0x00, 0x00, 0x00,
  0x00, 0xfe, 0xff, 0xff, 0x1c, 0x00, 0x00, 0x00, 0x00, 0x00, 0x00, 0x1c,
  0x01, 0x00, 0x00, 0x00, 0x3c, 0xe2, 0xff, 0xff, 0x14, 0x00, 0x00, 0x00,
  0x0b, 0x00, 0x00, 0x00, 0x18, 0x00, 0x00, 0x00, 0x40, 0x00, 0x00, 0x00,
  0x30, 0x00, 0x00, 0x00, 0x02, 0x00, 0x00, 0x00, 0x01, 0x00, 0x00, 0x00,
  0x04, 0x00, 0x00, 0x00, 0x19, 0x00, 0x00, 0x00, 0x53, 0x74, 0x61, 0x74,
  0x65, 0x66, 0x75, 0x6c, 0x50, 0x61, 0x72, 0x74, 0x69, 0x74, 0x69, 0x6f,
  0x6e, 0x65, 0x64, 0x43, 0x61, 0x6c, 0x6c, 0x3a, 0x30, 0x00, 0x00, 0x00,
  0x02, 0x00, 0x00, 0x00, 0xff, 0xff, 0xff, 0xff, 0x04, 0x00, 0x00, 0x00,
  0x24, 0xe2, 0xff, 0xff, 0x6a, 0xff, 0xff, 0xff, 0x00, 0x00, 0x00, 0x08,
  0x18, 0x00, 0x00, 0x00, 0x0c, 0x00, 0x00, 0x00, 0x04, 0x00, 0x00, 0x00,
  0x3c, 0xe2, 0xff, 0xff, 0x01, 0x00, 0x00, 0x00, 0x09, 0x00, 0x00, 0x00,
  0x03, 0x00, 0x00, 0x00, 0x08, 0x00, 0x00, 0x00, 0x06, 0x00, 0x00, 0x00,
  0x01, 0x00, 0x00, 0x00, 0xc0, 0xe2, 0xff, 0xff, 0x14, 0x00, 0x00, 0x00,
  0x0a, 0x00, 0x00, 0x00, 0x18, 0x00, 0x00, 0x00, 0x50, 0x00, 0x00, 0x00,
  0x40, 0x00, 0x00, 0x00, 0x02, 0x00, 0x00, 0x00, 0x01, 0x00, 0x00, 0x00,
  0x04, 0x00, 0x00, 0x00, 0x2a, 0x00, 0x00, 0x00, 0x6d, 0x6f, 0x64, 0x65,
  0x6c, 0x2f, 0x64, 0x65, 0x6e, 0x73, 0x65, 0x5f, 0x32, 0x2f, 0x4d, 0x61,
  0x74, 0x4d, 0x75, 0x6c, 0x3b, 0x6d, 0x6f, 0x64, 0x65, 0x6c, 0x2f, 0x64,
  0x65, 0x6e, 0x73, 0x65, 0x5f, 0x32, 0x2f, 0x42, 0x69, 0x61, 0x73, 0x41,
  0x64, 0x64, 0x00, 0x00, 0x02, 0x00, 0x00, 0x00, 0xff, 0xff, 0xff, 0xff,
  0x04, 0x00, 0x00, 0x00, 0x90, 0xe3, 0xff, 0xff, 0x00, 0x00, 0x0e, 0x00,
  0x14, 0x00, 0x00, 0x00, 0x08, 0x00, 0x0c, 0x00, 0x07, 0x00, 0x10, 0x00,
  0x0e, 0x00, 0x00, 0x00, 0x00, 0x00, 0x00, 0x08, 0x1c, 0x00, 0x00, 0x00,
  0x10, 0x00, 0x00, 0x00, 0x04, 0x00, 0x00, 0x00, 0x42, 0xff, 0xff, 0xff,
  0x00, 0x00, 0x00, 0x01, 0x01, 0x00, 0x00, 0x00, 0x08, 0x00, 0x00, 0x00,
  0x03, 0x00, 0x00, 0x00, 0x07, 0x00, 0x00, 0x00, 0x05, 0x00, 0x00, 0x00,
  0x02, 0x00, 0x00, 0x00, 0x68, 0xe3, 0xff, 0xff, 0x14, 0x00, 0x00, 0x00,
  0x09, 0x00, 0x00, 0x00, 0x18, 0x00, 0x00, 0x00, 0x64, 0x00, 0x00, 0x00,
  0x54, 0x00, 0x00, 0x00, 0x02, 0x00, 0x00, 0x00, 0x01, 0x00, 0x00, 0x00,
  0x20, 0x00, 0x00, 0x00, 0x3d, 0x00, 0x00, 0x00, 0x6d, 0x6f, 0x64, 0x65,
  0x6c, 0x2f, 0x64, 0x65, 0x6e, 0x73, 0x65, 0x5f, 0x31, 0x2f, 0x4d, 0x61,
  0x74, 0x4d, 0x75, 0x6c, 0x3b, 0x6d, 0x6f, 0x64, 0x65, 0x6c, 0x2f, 0x64,
  0x65, 0x6e, 0x73, 0x65, 0x5f, 0x31, 0x2f, 0x52, 0x65, 0x6c, 0x75, 0x3b,
  0x6d, 0x6f, 0x64, 0x65, 0x6c, 0x2f, 0x64, 0x65, 0x6e, 0x73, 0x65, 0x5f,
  0x31, 0x2f, 0x42, 0x69, 0x61, 0x73, 0x41, 0x64, 0x64, 0x00, 0x00, 0x00,
  0x02, 0x00, 0x00, 0x00, 0xff, 0xff, 0xff, 0xff, 0x20, 0x00, 0x00, 0x00,
  0x4c, 0xe4, 0xff, 0xff, 0x00, 0x00, 0x0e, 0x00, 0x16, 0x00, 0x00, 0x00,
  0x08, 0x00, 0x0c, 0x00, 0x07, 0x00, 0x10, 0x00, 0x0e, 0x00, 0x00, 0x00,
  0x00, 0x00, 0x00, 0x08, 0x24, 0x00, 0x00, 0x00, 0x18, 0x00, 0x00, 0x00,
  0x0c, 0x00, 0x00, 0x00, 0x00, 0x00, 0x06, 0x00, 0x08, 0x00, 0x07, 0x00,
  0x06, 0x00, 0x00, 0x00, 0x00, 0x00, 0x00, 0x01, 0x01, 0x00, 0x00, 0x00,
  0x07, 0x00, 0x00, 0x00, 0x03, 0x00, 0x00, 0x00, 0x00, 0x00, 0x00, 0x00,
  0x04, 0x00, 0x00, 0x00, 0x03, 0x00, 0x00, 0x00, 0x0c, 0x00, 0x10, 0x00,
  0x0b, 0x00, 0x00, 0x00, 0x0c, 0x00, 0x04, 0x00, 0x0c, 0x00, 0x00, 0x00,
  0x09, 0x00, 0x00, 0x00, 0x00, 0x00, 0x00, 0x09, 0x01, 0x00, 0x00, 0x00,
  0x48, 0xe4, 0xff, 0xff, 0x14, 0x00, 0x00, 0x00, 0x08, 0x00, 0x00, 0x00,
  0x18, 0x00, 0x00, 0x00, 0x5c, 0x00, 0x00, 0x00, 0x4c, 0x00, 0x00, 0x00,
  0x02, 0x00, 0x00, 0x00, 0x01, 0x00, 0x00, 0x00, 0x20, 0x00, 0x00, 0x00,
  0x37, 0x00, 0x00, 0x00, 0x6d, 0x6f, 0x64, 0x65, 0x6c, 0x2f, 0x64, 0x65,
  0x6e, 0x73, 0x65, 0x2f, 0x4d, 0x61, 0x74, 0x4d, 0x75, 0x6c, 0x3b, 0x6d,
  0x6f, 0x64, 0x65, 0x6c, 0x2f, 0x64, 0x65, 0x6e, 0x73, 0x65, 0x2f, 0x52,
  0x65, 0x6c, 0x75, 0x3b, 0x6d, 0x6f, 0x64, 0x65, 0x6c, 0x2f, 0x64, 0x65,
  0x6e, 0x73, 0x65, 0x2f, 0x42, 0x69, 0x61, 0x73, 0x41, 0x64, 0x64, 0x00,
  0x02, 0x00, 0x00, 0x00, 0xff, 0xff, 0xff, 0xff, 0x20, 0x00, 0x00, 0x00,
  0x4c, 0xe4, 0xff, 0xff, 0x1e, 0xe5, 0xff, 0xff, 0x04, 0x00, 0x00, 0x00,
  0x00, 0x02, 0x00, 0x00, 0x64, 0x2a, 0x4b, 0x3b, 0x4a, 0xc1, 0x3e, 0x3b,
  0xf9, 0xe4, 0x8a, 0x3c, 0x18, 0x1c, 0xb8, 0xba, 0xde, 0xf3, 0x49, 0x3b,
  0x88, 0x59, 0xba, 0x3a, 0xe4, 0x38, 0x33, 0x3c, 0x58, 0xaa, 0x38, 0x3b,
  0x00, 0x25, 0x15, 0xbe, 0xf4, 0xa6, 0x81, 0xbb, 0x2e, 0x4f, 0x59, 0x3a,
  0xc5, 0x98, 0xd1, 0x3f, 0xba, 0x93, 0xc3, 0xbb, 0xe6, 0x31, 0x71, 0xbc,
  0xb8, 0x7f, 0xf7, 0xbb, 0x81, 0xa0, 0xbb, 0x3b, 0x7f, 0xa5, 0x50, 0x3b,
  0x11, 0x39, 0x88, 0xbb, 0x62, 0xb1, 0xc6, 0xb9, 0x21, 0x4e, 0xe8, 0xba,
  0x9a, 0xa7, 0x0a, 0xc0, 0xa4, 0xa0, 0x40, 0xbb, 0x9c, 0x43, 0x2c, 0xbc,
  0xf1, 0x63, 0xd5, 0x3b, 0x60, 0xd7, 0xb0, 0x3b, 0x4f, 0x4d, 0xbf, 0xbb,
  0x97, 0xde, 0x70, 0xba, 0x3c, 0x83, 0x0b, 0xb9, 0x59, 0x31, 0x19, 0xba,
  0x01, 0x07, 0xc4, 0xbb, 0xa5, 0x1b, 0x82, 0x3e, 0x77, 0xb2, 0x46, 0x3b,
  0x96, 0xc6, 0xe6, 0xbd, 0x93, 0x1b, 0x80, 0xbd, 0x9d, 0x5c, 0x19, 0xbb,
  0xf1, 0x41, 0x21, 0xbd, 0x03, 0xb4, 0xcd, 0x3d, 0x7b, 0x34, 0x17, 0x3b,
  0x76, 0x43, 0xd4, 0xbb, 0x26, 0xf8, 0x66, 0xbc, 0xf5, 0x66, 0xd9, 0xb9,
  0xf3, 0x4f, 0x9f, 0x3d, 0xa0, 0x30, 0x83, 0xbb, 0x03, 0x96, 0x3c, 0xbf,
  0xd7, 0x06, 0x88, 0x3c, 0x62, 0x81, 0x40, 0x3d, 0xd6, 0x9a, 0xd2, 0xbb,
  0xe1, 0xf8, 0x69, 0x3c, 0x90, 0x6b, 0x42, 0xbd, 0xc7, 0x11, 0x91, 0x3d,
  0xbd, 0x94, 0x15, 0x3b, 0x96, 0xe9, 0x80, 0x3b, 0xfb, 0x7a, 0x38, 0x3e,
  0xd4, 0x94, 0x54, 0x3c, 0xb4, 0xf1, 0x08, 0xbc, 0x4b, 0xcc, 0x3e, 0xbc,
  0x3f, 0x68, 0xdf, 0xbd, 0xcc, 0x5c, 0xf9, 0xbb, 0x53, 0x2b, 0xa1, 0x3d,
  0x56, 0x51, 0x64, 0xbd, 0x18, 0x09, 0x0e, 0x3c, 0xe4, 0xa2, 0xa8, 0x3d,
  0x7a, 0x81, 0x6e, 0xba, 0x34, 0xbb, 0xcd, 0xbd, 0x0c, 0x5e, 0x66, 0x3a,
  0xde, 0x53, 0x64, 0x3a, 0xff, 0xfb, 0x06, 0xbc, 0x91, 0x29, 0x64, 0xbb,
  0xb4, 0x53, 0x27, 0xbb, 0xf1, 0xb3, 0xa7, 0x3a, 0x51, 0x14, 0xc7, 0xbd,
  0x9b, 0x42, 0x27, 0x3e, 0xbd, 0xf3, 0x95, 0x38, 0xd9, 0x1a, 0x67, 0x38,
  0xf7, 0xa5, 0x45, 0x3e, 0xc9, 0x8e, 0xe1, 0x3d, 0x32, 0x8e, 0x07, 0x3d,
  0x41, 0x53, 0xea, 0xbc, 0x06, 0xe5, 0xc5, 0x3d, 0xc9, 0xa8, 0x81, 0xbd,
  0xc9, 0x7c, 0x13, 0xbc, 0xe9, 0x9a, 0xfd, 0x3a, 0xce, 0x80, 0x5e, 0xbe,
  0x4a, 0xc9, 0x5b, 0x3d, 0x9b, 0x98, 0x17, 0x3e, 0x8e, 0x11, 0xd1, 0x3a,
  0x12, 0x3e, 0xf9, 0xbb, 0x1a, 0xe5, 0xb3, 0x39, 0x86, 0x60, 0x0c, 0xb9,
  0x92, 0xb6, 0x2f, 0x3a, 0x3d, 0x2d, 0x57, 0xba, 0xfd, 0x11, 0xd0, 0xba,
  0x39, 0xc1, 0xb1, 0xba, 0x2f, 0xc1, 0xbb, 0xba, 0x65, 0x7b, 0x82, 0xba,
  0x0e, 0xc9, 0x48, 0x3b, 0x01, 0x34, 0xca, 0xb7, 0xe8, 0xd5, 0x39, 0x3a,
  0x8b, 0xcf, 0xaf, 0xbd, 0xb1, 0xf0, 0xa9, 0x3d, 0xd4, 0xbd, 0x31, 0xbc,
  0x8b, 0x20, 0x02, 0xbe, 0x16, 0x2a, 0x09, 0xbd, 0x88, 0x3d, 0x14, 0x3b,
  0x7f, 0xdd, 0xac, 0xba, 0x39, 0x5d, 0x51, 0x3b, 0xdc, 0xe5, 0x90, 0xb9,
  0xcf, 0x3f, 0xfa, 0xbd, 0x62, 0x31, 0xa3, 0xbd, 0x55, 0x6c, 0x21, 0x3d,
  0xb3, 0xa0, 0x18, 0xbc, 0xf5, 0xa8, 0x1c, 0xbc, 0x0a, 0x2d, 0x7a, 0x3d,
  0xf9, 0x81, 0x79, 0xbc, 0xb5, 0xfb, 0xb8, 0xba, 0x46, 0xc3, 0x3d, 0xbc,
  0xa7, 0x38, 0x17, 0xbe, 0x72, 0xc1, 0x80, 0x3d, 0xc5, 0x40, 0x81, 0x3d,
  0xab, 0x3f, 0x34, 0xbd, 0x38, 0x74, 0x34, 0xbc, 0x14, 0x9f, 0xbf, 0x3d,
  0x04, 0x6e, 0x97, 0xba, 0x47, 0xa1, 0x61, 0x3c, 0xad, 0x4e, 0xbe, 0x3d,
  0xd2, 0x67, 0x9a, 0x3c, 0xbd, 0x4d, 0x23, 0x3a, 0x06, 0xa1, 0xb7, 0xbc,
  0x06, 0xe7, 0xff, 0xff, 0x10, 0x00, 0x00, 0x00, 0x07, 0x00, 0x00, 0x00,
  0x14, 0x00, 0x00, 0x00, 0x2c, 0x00, 0x00, 0x00, 0x02, 0x00, 0x00, 0x00,
  0x04, 0x00, 0x00, 0x00, 0x20, 0x00, 0x00, 0x00, 0x14, 0x00, 0x00, 0x00,
  0x6d, 0x6f, 0x64, 0x65, 0x6c, 0x2f, 0x64, 0x65, 0x6e, 0x73, 0x65, 0x5f,
  0x32, 0x2f, 0x4d, 0x61, 0x74, 0x4d, 0x75, 0x6c, 0x00, 0x00, 0x00, 0x00,
  0x98, 0xe6, 0xff, 0xff, 0x6a, 0xe7, 0xff, 0xff, 0x04, 0x00, 0x00, 0x00,
  0x00, 0x10, 0x00, 0x00, 0xa2, 0xde, 0x28, 0x3e, 0xc9, 0x83, 0x5e, 0xbe,
  0x2f, 0xf9, 0xb0, 0xbe, 0xdd, 0xcc, 0x12, 0xbe, 0x4e, 0x65, 0xff, 0x3d,
  0x4e, 0x3f, 0x03, 0xbe, 0x4c, 0x4d, 0x99, 0x3d, 0x28, 0x7c, 0xa7, 0x3b,
  0x16, 0xb3, 0x0f, 0x3d, 0x94, 0x55, 0xa9, 0xbe, 0xc9, 0x3f, 0x16, 0xbe,
  0xc0, 0xb0, 0xc7, 0x3e, 0xea, 0x56, 0x7a, 0x3e, 0x12, 0xb0, 0x0d, 0xbd,
  0x45, 0xd1, 0x4b, 0xbd, 0x5f, 0xd6, 0x80, 0xbe, 0x52, 0xa2, 0x59, 0xbe,
  0xeb, 0xb0, 0x0a, 0xbf, 0x8d, 0x56, 0xfc, 0x3d, 0xba, 0x84, 0xfe, 0xbe,
  0x2c, 0xd1, 0x4b, 0x3e, 0x79, 0x22, 0xf6, 0x3d, 0xc7, 0xeb, 0x84, 0x3e,
  0x95, 0x32, 0xb8, 0xbe, 0x71, 0xa1, 0x87, 0xbe, 0x16, 0xb6, 0x2c, 0xbe,
  0xe9, 0xfb, 0xa1, 0x3e, 0x2e, 0xfa, 0x48, 0x3e, 0x18, 0x35, 0x3c, 0xbe,
  0x32, 0x8f, 0x4e, 0xbd, 0x6b, 0xad, 0xed, 0x3d, 0x26, 0xa9, 0x13, 0xbe,
  0xbc, 0x38, 0x8f, 0xbe, 0x41, 0x50, 0x03, 0x3f, 0xa5, 0x05, 0xc4, 0x3c,
  0x1d, 0x32, 0xdf, 0xbd, 0x3d, 0x16, 0x5f, 0x3e, 0x16, 0x52, 0x77, 0xbe,
  0x96, 0x23, 0x70, 0xbe, 0xa8, 0x5b, 0x8f, 0xbd, 0x55, 0xc6, 0xa6, 0xbd,
  0x15, 0x83, 0x5d, 0x3e, 0xb7, 0x05, 0xce, 0xbd, 0x37, 0x79, 0x10, 0x3f,
  0x34, 0xbf, 0x4c, 0x3e, 0xa5, 0x0f, 0x30, 0xbe, 0x91, 0x41, 0x36, 0x3d,
  0xb2, 0xb0, 0x88, 0xbe, 0x60, 0xb8, 0x28, 0xbd, 0x6b, 0xae, 0xf2, 0xbc,
  0x91, 0x26, 0x21, 0xbd, 0xf1, 0x1d, 0xfc, 0xbd, 0x25, 0x08, 0x90, 0xbc,
  0x4e, 0xdb, 0xbd, 0x3c, 0x0a, 0x33, 0xfe, 0x3b, 0x02, 0x8a, 0xc3, 0xbe,
  0x12, 0x93, 0x3e, 0x3c, 0x41, 0xeb, 0x19, 0xbd, 0x07, 0x72, 0x17, 0xbf,
  0xec, 0x56, 0xe7, 0x3d, 0x3f, 0x9b, 0x1c, 0xbe, 0x17, 0x04, 0xda, 0x3c,
  0xf7, 0xf0, 0xb9, 0xbb, 0xe1, 0x75, 0x9c, 0xbd, 0xf7, 0x50, 0xd6, 0x3c,
  0x28, 0x3e, 0x75, 0x3e, 0x76, 0xf7, 0x32, 0xbd, 0x9a, 0xd3, 0x80, 0xbb,
  0xc3, 0xd1, 0xd7, 0x3d, 0xad, 0xa9, 0x82, 0x3d, 0x7e, 0xb9, 0x9d, 0xbc,
  0xd8, 0x1c, 0xda, 0x3d, 0x2c, 0x69, 0xc5, 0x3d, 0x5e, 0x55, 0x31, 0xbc,
  0x47, 0xcc, 0xa9, 0x3d, 0x5e, 0x75, 0x3b, 0xbf, 0xce, 0x8f, 0x6f, 0x3e,
  0x86, 0xc7, 0x55, 0x3e, 0xa6, 0xa0, 0x1f, 0xbe, 0xe0, 0x9c, 0x05, 0x3e,
  0xa7, 0x9d, 0x11, 0x3e, 0x18, 0x35, 0xaf, 0x3e, 0x6b, 0x28, 0xd6, 0x3d,
  0x74, 0x40, 0x36, 0x3e, 0x52, 0xde, 0x40, 0xbe, 0xc5, 0x6e, 0xc0, 0xbd,
  0x4c, 0xae, 0x7e, 0xbe, 0xb8, 0xfa, 0xdb, 0xbb, 0xaa, 0xe6, 0x67, 0x3d,
  0xb8, 0xf0, 0x81, 0x3e, 0xfc, 0x9f, 0x66, 0x3e, 0x62, 0xf1, 0x6d, 0xbd,
  0xbf, 0xb7, 0xfa, 0xbd, 0x97, 0x51, 0x48, 0x3d, 0xb8, 0xe1, 0xa0, 0x3e,
  0x3c, 0x5e, 0x48, 0x3d, 0x42, 0xd2, 0x7b, 0x3d, 0x40, 0xea, 0x4c, 0x3e,
  0xb3, 0x74, 0x66, 0xbd, 0x93, 0x93, 0x0c, 0x3e, 0x42, 0x5f, 0x31, 0x3e,
  0x29, 0x9e, 0x97, 0xbd, 0xed, 0xa0, 0x8a, 0xbd, 0x18, 0x4e, 0x59, 0x3e,
  0xb6, 0xa1, 0xbf, 0xbd, 0xf4, 0x6d, 0x40, 0x3e, 0x25, 0x54, 0x3c, 0x3d,
  0x63, 0x15, 0x93, 0xbe, 0x1f, 0xa6, 0x60, 0x3e, 0x6a, 0x2d, 0x4f, 0xbd,
  0x6e, 0x86, 0x0b, 0xbd, 0x82, 0x67, 0xf7, 0xbd, 0xdf, 0x60, 0x28, 0x3e,
  0xba, 0x47, 0xbe, 0xbb, 0x3d, 0xea, 0x37, 0x3d, 0x12, 0x5e, 0x67, 0xbd,
  0xf2, 0x09, 0x0b, 0x3c, 0x4e, 0x1c, 0xd0, 0x3e, 0xdc, 0x2c, 0x28, 0x3e,
  0x90, 0x47, 0x88, 0xbd, 0x35, 0x9b, 0x2b, 0x3e, 0x93, 0x31, 0x12, 0x3d,
  0x46, 0xe9, 0x48, 0xbe, 0xf3, 0xd7, 0xa1, 0x3d, 0x14, 0x2a, 0x77, 0x3d,
  0xfb, 0x04, 0x4b, 0x3d, 0x0b, 0xcc, 0xcb, 0x3d, 0x0e, 0xf7, 0xf3, 0xbc,
  0xe4, 0xe7, 0xb8, 0x3c, 0x34, 0xa6, 0x55, 0xbd, 0xbf, 0xe6, 0x78, 0xbd,
  0xd9, 0x9c, 0x86, 0xbd, 0x7a, 0x32, 0x90, 0x3d, 0x15, 0x52, 0x38, 0x3d,
  0xd8, 0xb9, 0x75, 0x3d, 0xdb, 0x6b, 0xfb, 0x3c, 0xf1, 0xa3, 0x9d, 0x3d,
  0x79, 0xb9, 0x1e, 0xbe, 0xde, 0xf0, 0x1f, 0xbc, 0xdb, 0xb0, 0x9d, 0x3e,
  0xfe, 0x90, 0x24, 0xbe, 0xf6, 0xc5, 0x26, 0x3e, 0x57, 0xef, 0x8d, 0x3c,
  0xe4, 0xfe, 0x78, 0x3d, 0x76, 0xa5, 0x1b, 0xbe, 0x54, 0xea, 0x66, 0xbb,
  0x19, 0xed, 0xee, 0x3c, 0xbf, 0x51, 0xbb, 0xbe, 0xd8, 0xf7, 0xf0, 0x3d,
  0x13, 0xe2, 0x49, 0xbe, 0xfa, 0xe9, 0x36, 0x3e, 0x85, 0x9a, 0x1e, 0xbe,
  0x81, 0x8c, 0xa6, 0xbc, 0xcd, 0xc8, 0x92, 0xbd, 0xb3, 0x89, 0xb2, 0x3d,
  0x2c, 0x7c, 0xa0, 0x3d, 0x81, 0xd0, 0xb7, 0xbd, 0xa2, 0x22, 0x0d, 0xbe,
  0x8f, 0x46, 0x03, 0x3e, 0xaf, 0x44, 0x70, 0x3c, 0xa2, 0xf5, 0x7c, 0xbe,
  0x8f, 0xfa, 0xc4, 0xbd, 0x13, 0xe5, 0x1c, 0x3e, 0xb5, 0xe2, 0x8d, 0x3e,
  0x37, 0x98, 0x5f, 0x3b, 0xaa, 0x30, 0xf9, 0xbd, 0x3e, 0xe0, 0xbf, 0x3c,
  0xaf, 0x01, 0x71, 0xbd, 0x1f, 0xc9, 0x4f, 0x3e, 0x22, 0xde, 0x5b, 0x3e,
  0x8b, 0x21, 0x6b, 0xbb, 0xc0, 0xe3, 0x64, 0xbe, 0x59, 0x93, 0x44, 0x3e,
  0x7d, 0xf4, 0x9e, 0x3d, 0xe3, 0x43, 0x04, 0x3e, 0x83, 0xf2, 0x8c, 0xbe,
  0xc3, 0x29, 0x81, 0x3d, 0x44, 0x3a, 0x0e, 0xbd, 0x32, 0xbe, 0xb3, 0xbc,
  0x06, 0x26, 0x64, 0x3d, 0x8f, 0x33, 0xb5, 0x3e, 0xde, 0x85, 0x90, 0x3d,
  0xd9, 0xf5, 0xbe, 0x3e, 0x6d, 0x97, 0x85, 0x3e, 0x31, 0x4a, 0x1e, 0x3e,
  0x64, 0x75, 0x15, 0xbe, 0x73, 0xbd, 0x6a, 0x3d, 0xb9, 0x0d, 0xc5, 0x3e,
  0x64, 0x36, 0x60, 0xbe, 0x8a, 0x12, 0x14, 0x3e, 0x7c, 0xc3, 0x26, 0xbe,
  0xa8, 0xdb, 0xc0, 0xbd, 0xa3, 0xb7, 0x1c, 0xbe, 0xbc, 0xaa, 0x8a, 0x3d,
  0xd5, 0xf0, 0x39, 0x3e, 0x32, 0xbb, 0xb3, 0x3d, 0x69, 0x76, 0x5f, 0x3e,
  0xf1, 0x43, 0x97, 0xbd, 0xfb, 0x97, 0xac, 0x3d, 0xa2, 0xae, 0x70, 0x3e,
  0x7d, 0x28, 0xb9, 0xbc, 0x50, 0x30, 0xec, 0x3d, 0x97, 0x37, 0x02, 0x3e,
  0xee, 0x50, 0x3a, 0xbf, 0x29, 0xbe, 0xf4, 0xbd, 0xb4, 0xae, 0x41, 0x3d,
  0xb0, 0x59, 0xae, 0x3c, 0xf3, 0xca, 0x6b, 0xbd, 0x75, 0x1c, 0xf0, 0xbc,
  0x96, 0x13, 0x16, 0xbe, 0x58, 0x4a, 0x30, 0x3e, 0x05, 0xaa, 0xcc, 0xbc,
  0x9c, 0xb6, 0x46, 0x3e, 0x49, 0xf9, 0x82, 0x3d, 0x0e, 0x29, 0xb3, 0xbc,
  0xde, 0x2d, 0x3d, 0xbe, 0x42, 0x55, 0x31, 0x3e, 0xe6, 0xef, 0x16, 0x3e,
  0x65, 0x2f, 0xd1, 0x3a, 0x02, 0xef, 0x71, 0xbd, 0x40, 0x36, 0x65, 0x3e,
  0xd6, 0x59, 0x7d, 0xbe, 0xce, 0x77, 0x4a, 0x3e, 0xa4, 0x10, 0xac, 0x3e,
  0x98, 0x57, 0xdf, 0xbe, 0xf2, 0xfa, 0x1a, 0x3f, 0xba, 0xfd, 0x03, 0xbf,
  0x5e, 0x77, 0x97, 0x3d, 0x28, 0x9d, 0xd2, 0x3e, 0x79, 0xda, 0x84, 0xbe,
  0xdf, 0x58, 0x48, 0xbe, 0xa1, 0x0a, 0xe1, 0xbe, 0x86, 0xa0, 0x2f, 0xbe,
  0x3b, 0x4e, 0x99, 0x3e, 0xe6, 0x5c, 0x09, 0xbf, 0xf2, 0xff, 0xbe, 0x3e,
  0x0c, 0xca, 0xcb, 0x3e, 0x91, 0xcf, 0xa3, 0xbe, 0x17, 0xd2, 0xc3, 0xbe,
  0xff, 0xf7, 0x5f, 0xbe, 0x2b, 0xa5, 0xe5, 0xbe, 0xe2, 0xaf, 0xf4, 0xbe,
  0x9e, 0xfd, 0x26, 0xbe, 0xb9, 0x1d, 0x04, 0x3f, 0x31, 0xcf, 0xea, 0xbe,
  0x9f, 0x47, 0x8e, 0x3d, 0x7d, 0x45, 0x18, 0xbf, 0xbf, 0xd6, 0xea, 0xbd,
  0xcd, 0x5f, 0x22, 0xbf, 0xd0, 0x14, 0xeb, 0xbd, 0x68, 0xd6, 0xe7, 0xbe,
  0x6d, 0x31, 0xf6, 0x3d, 0x95, 0xac, 0xdc, 0xbf, 0xbb, 0x08, 0xea, 0x3e,
  0x23, 0xb0, 0x26, 0xbc, 0x07, 0xa1, 0xe0, 0xbe, 0xe4, 0xaf, 0x01, 0xbd,
  0xd2, 0x34, 0x9c, 0xbd, 0xb0, 0x16, 0x04, 0x3f, 0x02, 0x30, 0x11, 0x3a,
  0x86, 0x18, 0x38, 0xbe, 0xfc, 0x87, 0x41, 0xbf, 0xf0, 0x52, 0x8e, 0x3c,
  0xdb, 0xe7, 0x17, 0x3d, 0x9c, 0x69, 0x21, 0xbd, 0xa4, 0x68, 0x8e, 0xbd,
  0x21, 0x80, 0x88, 0xbf, 0xc0, 0x67, 0xb1, 0x3e, 0xb1, 0xb2, 0xc3, 0x3c,
  0xcd, 0x2d, 0x7f, 0x3e, 0xdd, 0xd0, 0x57, 0x3d, 0x8c, 0xc2, 0x83, 0x3d,
  0xa0, 0xc9, 0xb3, 0xbd, 0xf0, 0x53, 0x7a, 0xbd, 0x07, 0x53, 0xe8, 0x3d,
  0x19, 0x5d, 0x1e, 0x3d, 0xf5, 0x19, 0xfd, 0xbc, 0x64, 0xa3, 0x68, 0xbd,
  0xae, 0x61, 0x8c, 0xbd, 0x71, 0x4d, 0x5b, 0xbe, 0xfb, 0xb0, 0x6b, 0x3d,
  0x0b, 0xb7, 0x0a, 0xbb, 0xa4, 0xc4, 0xff, 0xbd, 0x08, 0x14, 0xa5, 0x3d,
  0x7d, 0x70, 0x35, 0x3d, 0x72, 0x2a, 0xee, 0xbf, 0x62, 0x58, 0x8d, 0xbd,
  0x2e, 0x5e, 0x03, 0xbf, 0x93, 0x04, 0x13, 0xbb, 0xbb, 0x97, 0x35, 0x3e,
  0xc5, 0x1f, 0x3f, 0xbd, 0x2f, 0x83, 0x71, 0x3d, 0x44, 0xe8, 0xde, 0xba,
  0xcb, 0x5b, 0xb5, 0xbe, 0x68, 0xf3, 0x56, 0xbe, 0x92, 0xea, 0x78, 0xbe,
  0x5d, 0x97, 0xcd, 0xbe, 0x6d, 0x5a, 0x43, 0x3e, 0x5c, 0x15, 0x1f, 0xbe,
  0x5b, 0xb3, 0xea, 0x3e, 0x71, 0x52, 0x1b, 0x3e, 0xba, 0xa2, 0x0f, 0x3e,
  0xe8, 0x40, 0xfa, 0x3d, 0x64, 0x6a, 0xe7, 0x3d, 0x4a, 0x89, 0x76, 0xbe,
  0xd6, 0xf8, 0x06, 0xbf, 0x90, 0xfd, 0x9c, 0x3c, 0x9e, 0xf8, 0x7b, 0xbe,
  0xab, 0xaf, 0xe7, 0x3d, 0xc1, 0x72, 0xa4, 0x3e, 0x6d, 0x8d, 0x93, 0xbf,
  0xbc, 0xc4, 0x2d, 0x3e, 0x34, 0xc0, 0x0c, 0xbf, 0x73, 0x5f, 0x10, 0xbf,
  0x54, 0xc9, 0xca, 0xbd, 0xef, 0x7a, 0x1e, 0xbe, 0xe6, 0x15, 0xee, 0x3c,
  0x31, 0x84, 0x51, 0xbe, 0xf1, 0x0c, 0xbb, 0x3c, 0xbf, 0xb8, 0x92, 0x3e,
  0x2c, 0x1d, 0xe4, 0xbd, 0x08, 0x24, 0x32, 0x3e, 0xc6, 0xf1, 0xad, 0x3e,
  0x98, 0x21, 0x9f, 0x3e, 0x58, 0xb0, 0x0d, 0xbd, 0x18, 0x57, 0xcc, 0xbe,
  0x3f, 0xa5, 0x06, 0xbe, 0x46, 0x33, 0xe3, 0xbe, 0xc1, 0xa2, 0x8f, 0xbd,
  0x96, 0xd0, 0x07, 0x3e, 0x72, 0x03, 0x08, 0xbf, 0x0c, 0x2c, 0x17, 0x3f,
  0x1e, 0x6f, 0x3c, 0x3e, 0x3e, 0x92, 0xd1, 0xbe, 0xe3, 0xb1, 0xc5, 0x3e,
  0x5a, 0xa6, 0x67, 0xbe, 0x6a, 0x84, 0x30, 0x3e, 0x89, 0x17, 0x07, 0xbe,
  0x4f, 0xbc, 0x0a, 0xbf, 0xf5, 0x82, 0xc0, 0x3b, 0x85, 0x18, 0x11, 0xbf,
  0x86, 0xa0, 0x99, 0xbe, 0x2c, 0xea, 0xea, 0x3d, 0xee, 0x26, 0xcc, 0x3e,
  0x44, 0xa4, 0x97, 0x3d, 0x7b, 0xfa, 0x34, 0xbf, 0x3e, 0x02, 0x6c, 0xbe,
  0x00, 0xa3, 0xea, 0x3c, 0x10, 0x4d, 0x9e, 0x3c, 0x3c, 0xcd, 0x90, 0xbf,
  0xe8, 0x94, 0x39, 0xbd, 0xc4, 0x28, 0x0f, 0xbf, 0x04, 0xaa, 0xb1, 0xbf,
  0xd5, 0xa9, 0x1e, 0xbe, 0xb7, 0x74, 0x0f, 0xbf, 0xf1, 0xdc, 0x6c, 0xbf,
  0x05, 0xad, 0x6a, 0xbf, 0x38, 0xa0, 0x94, 0xbd, 0x67, 0xee, 0x8b, 0xbe,
  0x6d, 0x0c, 0xe0, 0xbf, 0x6d, 0x94, 0xcc, 0x3e, 0xbc, 0x0d, 0xf8, 0x3b,
  0xdf, 0x3f, 0xaf, 0xbe, 0xb0, 0x78, 0xd2, 0x3d, 0x26, 0x28, 0x5d, 0xbf,
  0x0f, 0x0c, 0xcf, 0xbe, 0x27, 0xb6, 0x82, 0x3b, 0xda, 0x29, 0x34, 0x3d,
  0x74, 0x1d, 0x5e, 0xbf, 0x63, 0xa9, 0x90, 0xbe, 0x73, 0xbe, 0x2d, 0xbf,
  0xee, 0x43, 0x16, 0xbf, 0xa8, 0xa3, 0x86, 0xbf, 0xd9, 0xb9, 0xd6, 0xbf,
  0x02, 0x22, 0xdf, 0xbe, 0x7d, 0x3a, 0xe5, 0xbe, 0xe4, 0x32, 0x04, 0xbf,
  0x64, 0x80, 0x08, 0xbf, 0xc6, 0x23, 0x4c, 0xbe, 0x2f, 0x74, 0x6e, 0xbe,
  0x70, 0x6f, 0x2f, 0xc0, 0x88, 0xd0, 0x53, 0xbf, 0x5e, 0x28, 0xfd, 0xbe,
  0x4e, 0x21, 0x99, 0xbe, 0x07, 0x30, 0x66, 0x3e, 0xe9, 0x5b, 0x7e, 0x3e,
  0x72, 0x12, 0x07, 0x3e, 0x89, 0xf3, 0x92, 0xbd, 0xc9, 0x6c, 0xda, 0x3d,
  0x60, 0xd3, 0xcc, 0x3b, 0x22, 0x27, 0xb8, 0x3d, 0xa0, 0x22, 0x8c, 0x3e,
  0x5f, 0x3f, 0x12, 0x3e, 0xc3, 0x15, 0xdd, 0xbd, 0xf0, 0x53, 0xbb, 0x3b,
  0x58, 0xb8, 0x10, 0xbf, 0x5b, 0x0d, 0x1c, 0xbc, 0xa5, 0xc9, 0x19, 0xbe,
  0x54, 0x94, 0x36, 0xbc, 0x2b, 0xe8, 0x1d, 0x3e, 0xe0, 0x5d, 0x0b, 0x3e,
  0xae, 0x77, 0x8c, 0x3d, 0xc5, 0x17, 0x27, 0x3e, 0x89, 0xf4, 0xec, 0xbd,
  0x4e, 0x67, 0xe1, 0x3d, 0x1b, 0xa8, 0x46, 0x3e, 0x9a, 0xb7, 0xc0, 0xbc,
  0xf0, 0x1f, 0x6d, 0xbe, 0x87, 0x83, 0x15, 0x3e, 0xb0, 0x48, 0x2f, 0x3e,
  0x4b, 0x8f, 0xb9, 0xbd, 0x58, 0x57, 0x9b, 0xbe, 0x3b, 0xe2, 0xc7, 0x3d,
  0x8c, 0x78, 0x8e, 0x3e, 0xb8, 0x2c, 0xa1, 0x3d, 0x5c, 0x8f, 0xb3, 0xbe,
  0x7b, 0x6a, 0x45, 0x3b, 0x16, 0x0b, 0xe1, 0x3d, 0xe4, 0xd4, 0xe3, 0xbd,
  0x40, 0x0b, 0x9d, 0x3e, 0x78, 0xfe, 0x83, 0xbd, 0x79, 0xd5, 0xfa, 0x3c,
  0x2a, 0x3d, 0x49, 0xbd, 0x46, 0x0a, 0x61, 0x3e, 0x07, 0x70, 0xa4, 0xbc,
  0x85, 0x48, 0xa3, 0x3c, 0x5c, 0xa2, 0x29, 0x3e, 0x98, 0x1e, 0xd9, 0xbe,
  0xa0, 0x2a, 0x0a, 0xbe, 0x05, 0x29, 0x76, 0x3e, 0x0d, 0xf6, 0xd0, 0x3d,
  0x5f, 0x13, 0x48, 0x3e, 0x37, 0x40, 0x0e, 0x3d, 0x30, 0xd0, 0xdd, 0x3d,
  0x33, 0x02, 0xd6, 0xbc, 0xdc, 0x30, 0xa2, 0x3a, 0x3e, 0x9b, 0x9c, 0xbd,
  0xa9, 0x77, 0x43, 0xbd, 0xa8, 0xf1, 0x23, 0x3e, 0xea, 0x92, 0xa8, 0x3e,
  0xaa, 0xfe, 0x7d, 0xbd, 0xc5, 0x44, 0x07, 0xbe, 0xdc, 0xcb, 0x34, 0xbe,
  0xb7, 0xfa, 0x54, 0x3e, 0xdc, 0xb8, 0xed, 0xbc, 0x66, 0xeb, 0x1b, 0x3e,
  0x7b, 0x55, 0x1e, 0x3e, 0x83, 0xd9, 0xaa, 0xbd, 0x2a, 0xe6, 0xa6, 0xbe,
  0x60, 0xe9, 0xda, 0x3d, 0x0d, 0x76, 0xd1, 0x3b, 0x78, 0xb4, 0xa1, 0x3d,
  0xfd, 0x5b, 0x0b, 0x3e, 0xb9, 0x68, 0x28, 0xbd, 0x6c, 0x69, 0xea, 0x3d,
  0xeb, 0x99, 0xb3, 0x3d, 0xa0, 0xa9, 0x16, 0x3d, 0xea, 0x49, 0x3f, 0x3e,
  0xe2, 0x33, 0x99, 0xbd, 0xea, 0x61, 0x1b, 0xbf, 0x30, 0xd1, 0xe8, 0x3a,
  0x4e, 0x26, 0x18, 0x3e, 0x28, 0xcd, 0x12, 0x3d, 0xf8, 0x6a, 0x6c, 0xbe,
  0xaf, 0x1c, 0x99, 0x3d, 0xa9, 0x52, 0x0f, 0x3e, 0x84, 0x76, 0x01, 0xbe,
  0x29, 0xcb, 0x97, 0x3e, 0x2e, 0x77, 0xd1, 0x3c, 0xdc, 0xe9, 0xb3, 0x3d,
  0x6b, 0xff, 0x33, 0xbd, 0x50, 0x2d, 0x7d, 0x3e, 0xa9, 0x6f, 0x47, 0x3e,
  0x98, 0x65, 0xa4, 0x3c, 0x2c, 0xf0, 0x05, 0x3e, 0x1e, 0xcd, 0x46, 0x3d,
  0x46, 0x1b, 0x13, 0x3e, 0x85, 0x1e, 0x7e, 0x3e, 0x26, 0x61, 0xa3, 0x3e,
  0x5a, 0x1f, 0x99, 0xbe, 0xc7, 0x4a, 0xf1, 0xbd, 0x43, 0xbd, 0x99, 0x3d,
  0x00, 0x0a, 0x86, 0xbd, 0xae, 0xab, 0x26, 0xbe, 0x83, 0x38, 0x62, 0xbe,
  0x48, 0xa7, 0x03, 0x3d, 0x83, 0x43, 0x13, 0x3d, 0x0d, 0xd4, 0xd8, 0xbd,
  0x5a, 0xb0, 0x58, 0x3d, 0xf4, 0xf7, 0xd9, 0x3d, 0x4a, 0xcf, 0x54, 0xbd,
  0x77, 0xf0, 0x93, 0xbc, 0x94, 0x91, 0xb6, 0x3e, 0xe4, 0x7b, 0x43, 0x3e,
  0xd7, 0xd0, 0x46, 0xbc, 0x52, 0x0b, 0xd7, 0x3c, 0x7c, 0xe0, 0x58, 0x3d,
  0xbf, 0x18, 0x1b, 0x3e, 0x89, 0x7d, 0x07, 0xbe, 0x06, 0xf9, 0xcf, 0x3e,
  0x4a, 0x4f, 0x1e, 0xbe, 0x12, 0xb5, 0x9c, 0xbc, 0x0c, 0x3f, 0xc6, 0x3d,
  0x93, 0x7e, 0x83, 0x3e, 0xdc, 0x22, 0x2b, 0xbd, 0x0d, 0x4a, 0x09, 0x3e,
  0x76, 0x81, 0x59, 0x3d, 0xf5, 0x0c, 0x43, 0xbc, 0x52, 0xc8, 0x92, 0xbd,
  0xfd, 0xb1, 0xa8, 0x3e, 0x19, 0x06, 0xc0, 0xbd, 0x71, 0x29, 0xa5, 0xbe,
  0x8f, 0xce, 0x2b, 0xbd, 0x9f, 0x84, 0x8d, 0xbd, 0xf6, 0xd1, 0x75, 0x3d,
  0x6c, 0x6b, 0xfb, 0xbb, 0x08, 0x51, 0xb3, 0x3d, 0x26, 0xa1, 0xb5, 0xbc,
  0x5e, 0x69, 0x88, 0xbc, 0xe4, 0x9f, 0x45, 0xbd, 0x50, 0xc8, 0xa0, 0xbd,
  0xba, 0xa7, 0x36, 0x3d, 0x67, 0xc6, 0xac, 0x3a, 0x5a, 0x14, 0x97, 0x3e,
  0xbc, 0x6b, 0x0a, 0xbe, 0xc2, 0xcd, 0x15, 0xbe, 0x0d, 0x63, 0x47, 0xbd,
  0x0f, 0x3c, 0xe3, 0x3a, 0xbf, 0xa3, 0xb3, 0x3c, 0x4d, 0xdc, 0x9f, 0xbe,
  0x10, 0x2a, 0x55, 0xbd, 0x59, 0xaf, 0x75, 0xbd, 0xd3, 0xb5, 0x6f, 0x3c,
  0x6a, 0x02, 0x2e, 0x3e, 0xa8, 0x8d, 0xb2, 0x3d, 0x7d, 0xc1, 0xc4, 0xbd,
  0xa7, 0x4a, 0x17, 0x3d, 0x46, 0x0b, 0xe0, 0xbd, 0xf0, 0xa5, 0xde, 0xbd,
  0x13, 0x84, 0x16, 0xbe, 0x2a, 0x95, 0xb0, 0x3d, 0xa4, 0xd7, 0xbc, 0xbd,
  0x98, 0xa6, 0x4d, 0xbe, 0x47, 0x89, 0x68, 0x3d, 0xfa, 0x92, 0xec, 0xbd,
  0x0d, 0xf8, 0x0e, 0xbd, 0x8a, 0x95, 0xf2, 0x3b, 0x50, 0xa9, 0x1a, 0xbd,
  0x14, 0xff, 0x5f, 0x3d, 0xaf, 0x0e, 0xf2, 0xbd, 0xfc, 0x53, 0xc8, 0x3d,
  0x4f, 0xab, 0x33, 0xbc, 0x09, 0x1b, 0x0c, 0x3e, 0x0b, 0x76, 0x51, 0xbc,
  0x77, 0x1d, 0x31, 0xbd, 0x52, 0x95, 0xd3, 0x3e, 0x20, 0x34, 0x5f, 0x3d,
  0x48, 0x4f, 0x61, 0xbe, 0xe8, 0x78, 0xa1, 0x3d, 0x36, 0x46, 0x28, 0xbe,
  0x53, 0xf2, 0xf3, 0x3d, 0x3b, 0xce, 0x20, 0xbe, 0xe1, 0x0d, 0xa4, 0x3b,
  0x3c, 0x58, 0x54, 0xbe, 0x8c, 0xd5, 0x66, 0x3e, 0xdd, 0x34, 0xa3, 0x3e,
  0x2c, 0x48, 0x37, 0xbd, 0x16, 0xfe, 0x9a, 0xbe, 0x32, 0x47, 0x8a, 0x3d,
  0x51, 0x32, 0x9a, 0xbc, 0x73, 0x95, 0x06, 0xbe, 0x91, 0x5d, 0xa1, 0x3d,
  0xde, 0x3c, 0x09, 0x3d, 0x01, 0x10, 0xab, 0xbe, 0x44, 0x4e, 0x91, 0xbe,
  0x2e, 0xd2, 0xd0, 0x3d, 0xc0, 0x43, 0x32, 0xbe, 0xc6, 0xe9, 0xa4, 0x3e,
  0x18, 0x56, 0x2d, 0x3e, 0x54, 0x0d, 0x86, 0xbe, 0x5f, 0x9e, 0xcd, 0x3d,
  0x4b, 0xcb, 0x59, 0x3e, 0xda, 0x04, 0x0b, 0xbf, 0xb5, 0xf8, 0xb5, 0x3d,
  0xf9, 0xbd, 0xcf, 0xbd, 0x1e, 0xf6, 0xc4, 0x3e, 0x0d, 0x4a, 0x58, 0xbd,
  0xdf, 0xc9, 0xd5, 0x3d, 0xa0, 0x73, 0xfc, 0x3d, 0x04, 0xb7, 0xbf, 0xbe,
  0xa6, 0xe5, 0xec, 0xbe, 0x06, 0xab, 0xaf, 0x3e, 0x75, 0xa2, 0x01, 0xbf,
  0xc1, 0x15, 0xa5, 0xbe, 0x3b, 0xb4, 0x8f, 0x3e, 0x34, 0xd0, 0x15, 0xbf,
  0xd6, 0x98, 0x1b, 0x3e, 0x3d, 0x10, 0xc9, 0xbe, 0xc7, 0x9b, 0xe4, 0xbe,
  0x60, 0xf6, 0x59, 0xbf, 0xb1, 0xb5, 0x97, 0x3d, 0xcc, 0x60, 0x91, 0x3a,
  0x24, 0x5a, 0x4c, 0x3e, 0x9f, 0xc9, 0xe6, 0xbe, 0xd2, 0x36, 0x4e, 0x3e,
  0xca, 0x5b, 0x2b, 0xbf, 0x54, 0xfc, 0x48, 0xbe, 0xbf, 0x6a, 0x30, 0x3f,
  0xeb, 0xd2, 0x27, 0xbd, 0x13, 0xab, 0xe1, 0xbd, 0x72, 0x6d, 0x10, 0x3e,
  0xda, 0x4c, 0x3a, 0x3d, 0xb3, 0xed, 0x3f, 0xbd, 0x5a, 0x9b, 0x55, 0xbb,
  0xb3, 0x58, 0x9f, 0xbd, 0x62, 0xb2, 0x74, 0x3d, 0x70, 0x7a, 0xe6, 0xbd,
  0x12, 0x65, 0xa1, 0x3d, 0xa1, 0xb3, 0xc5, 0x3e, 0xde, 0xf1, 0xe5, 0xbe,
  0xc8, 0x65, 0x41, 0x3e, 0xc5, 0x23, 0x9c, 0xbb, 0x81, 0xae, 0xce, 0x3b,
  0x15, 0xf5, 0xc9, 0x3e, 0x72, 0x7e, 0xec, 0xbd, 0x25, 0xb2, 0x98, 0xbe,
  0xad, 0xdc, 0x62, 0x3d, 0xab, 0xd8, 0x61, 0x3d, 0x0e, 0xe0, 0xa9, 0x3d,
  0x3b, 0x78, 0x7e, 0xbe, 0x51, 0x30, 0x17, 0x3e, 0xdf, 0x14, 0x7e, 0x3e,
  0x57, 0xc7, 0xf0, 0xbd, 0x1c, 0x39, 0x2f, 0x3e, 0xcd, 0x88, 0x03, 0xbe,
  0x58, 0xe5, 0x32, 0x3e, 0x0d, 0x31, 0x77, 0xbd, 0xb7, 0x2c, 0x34, 0x3c,
  0x9e, 0x9b, 0x52, 0xbe, 0x92, 0x95, 0x4b, 0x3e, 0x93, 0xd8, 0x15, 0xc0,
  0x41, 0x93, 0x87, 0xc0, 0xd9, 0xc1, 0x2a, 0xc1, 0x0c, 0xe4, 0x11, 0xc1,
  0x48, 0xfb, 0xf4, 0xc0, 0x2b, 0x1c, 0xf2, 0xbd, 0x8a, 0xcf, 0x09, 0xbf,
  0x52, 0x25, 0xd5, 0xc0, 0xbd, 0x1d, 0x5c, 0xc0, 0x92, 0x0c, 0x0b, 0xbe,
  0x91, 0xf2, 0x98, 0xbb, 0x86, 0x08, 0x8d, 0x3f, 0x34, 0x5c, 0xcd, 0xbf,
  0xfc, 0x66, 0xb4, 0x3d, 0xc9, 0x0d, 0xfa, 0xbe, 0x95, 0x24, 0x53, 0xbf,
  0x2c, 0xa4, 0xda, 0xc0, 0x34, 0x10, 0x79, 0xbe, 0x7d, 0xb4, 0x32, 0xbe,
  0xca, 0xde, 0x84, 0xbf, 0x01, 0x60, 0xd5, 0xbf, 0xc0, 0x8c, 0x73, 0xbf,
  0x64, 0x2d, 0x42, 0x3e, 0x17, 0x95, 0x1c, 0x3f, 0x61, 0x0d, 0x9d, 0xc0,
  0xf9, 0xec, 0xcb, 0xbd, 0xf2, 0xbb, 0x26, 0xbf, 0x52, 0xf1, 0x80, 0xbe,
  0x5d, 0x31, 0xc8, 0xbf, 0xec, 0x77, 0x1f, 0xbf, 0x51, 0x68, 0x00, 0xc0,
  0x04, 0x41, 0xb0, 0x3b, 0x59, 0x7e, 0xfe, 0x3d, 0x66, 0x28, 0x7f, 0x3c,
  0x37, 0x91, 0x1e, 0x3e, 0x5c, 0x17, 0x89, 0xbd, 0xde, 0xba, 0x2a, 0x3e,
  0x13, 0x3b, 0xb9, 0x3d, 0x3d, 0xe0, 0xa9, 0x3d, 0x91, 0xe7, 0x24, 0x3e,
  0x35, 0xa7, 0x45, 0x3e, 0x6e, 0x7b, 0xa6, 0xbd, 0x17, 0x5a, 0x8a, 0x3d,
  0x03, 0xb5, 0x0c, 0xbf, 0x60, 0xc0, 0xcb, 0x3e, 0x8f, 0xd3, 0x19, 0x3d,
  0xf5, 0x5d, 0xaf, 0xbd, 0x32, 0x1e, 0x81, 0xbc, 0x01, 0x12, 0x09, 0xbe,
  0xf2, 0x31, 0x7b, 0xbc, 0x81, 0x85, 0x31, 0xbd, 0xba, 0x44, 0xfa, 0x3c,
  0x10, 0x2e, 0x94, 0x3e, 0xad, 0xa5, 0x89, 0xbe, 0xee, 0x3e, 0x2e, 0x3d,
  0xaf, 0x4e, 0x5a, 0x3e, 0x3b, 0x2d, 0x50, 0x3b, 0xf2, 0x04, 0x49, 0x3d,
  0x11, 0x23, 0xfa, 0x3d, 0x0e, 0x69, 0x9d, 0x3d, 0xee, 0x4f, 0x0a, 0xbe,
  0xb9, 0x5f, 0xbf, 0xbd, 0xcc, 0x98, 0x4f, 0x3e, 0x98, 0xbc, 0x82, 0x3d,
  0xb7, 0xf8, 0x16, 0xbe, 0xe6, 0x82, 0x65, 0xbd, 0x9f, 0x60, 0x1d, 0x3e,
  0x60, 0x29, 0x42, 0xbd, 0x53, 0xfc, 0x2b, 0x3e, 0x50, 0xa1, 0xc7, 0xbd,
  0x96, 0x9a, 0xc7, 0x3d, 0x13, 0x1c, 0x2b, 0xbe, 0x35, 0xbe, 0x9f, 0xbd,
  0x9e, 0x84, 0x0b, 0x3d, 0xc0, 0x4a, 0x86, 0x3e, 0x3c, 0xb0, 0xb1, 0xbe,
  0x03, 0x17, 0x65, 0x3d, 0x4e, 0xa5, 0xff, 0xbd, 0x88, 0x67, 0x41, 0xbd,
  0x0d, 0xde, 0x86, 0xbd, 0xe1, 0xcc, 0x4e, 0x3c, 0xf5, 0x47, 0x2f, 0xbd,
  0x8c, 0x5f, 0x05, 0xbe, 0x76, 0xc3, 0xdc, 0x3b, 0xa7, 0x21, 0x06, 0x3e,
  0xa8, 0x27, 0x31, 0xbe, 0x71, 0x4b, 0x3f, 0x3d, 0xf2, 0xf5, 0x0e, 0x3f,
  0xbd, 0xaa, 0x1d, 0x3e, 0x8d, 0x91, 0xa1, 0xbc, 0x58, 0x3a, 0xda, 0x3d,
  0x01, 0x30, 0x81, 0x3e, 0xf4, 0xcb, 0xe1, 0xbd, 0x9e, 0xb7, 0x1c, 0x3e,
  0xf1, 0x30, 0x78, 0x3d, 0x9d, 0x88, 0x28, 0xbe, 0x8b, 0xe9, 0x50, 0x3d,
  0x2e, 0x93, 0x72, 0x3d, 0x5e, 0x0d, 0xb9, 0xbd, 0xcb, 0xb4, 0x04, 0x3e,
  0x2a, 0x7e, 0x42, 0xbe, 0xe3, 0xd2, 0x8e, 0x3e, 0xaf, 0x97, 0xaf, 0x3c,
  0x7c, 0xc7, 0xa3, 0x3e, 0xf8, 0xfa, 0xd0, 0xbc, 0xe2, 0xba, 0xba, 0xba,
  0x35, 0x69, 0x55, 0x3c, 0x58, 0xa2, 0x04, 0xbe, 0x5c, 0xf1, 0x63, 0xbe,
  0xb5, 0x35, 0xdf, 0x3c, 0xc4, 0x3f, 0x08, 0x3e, 0xff, 0x39, 0xe7, 0x3d,
  0x77, 0xbb, 0x6f, 0xbd, 0xa1, 0xc1, 0xd1, 0x3e, 0x96, 0xd8, 0xfa, 0x3d,
  0x22, 0x46, 0x14, 0x3e, 0x8a, 0xf7, 0xb0, 0xbe, 0xe4, 0x8b, 0x95, 0x3d,
  0x79, 0x0d, 0xed, 0x3c, 0xe2, 0x4b, 0x32, 0xbd, 0xbd, 0xfa, 0x5b, 0xbc,
  0x8d, 0x14, 0x71, 0x3e, 0x5c, 0x62, 0xfe, 0xbe, 0xfc, 0xc4, 0x0a, 0x3e,
  0x19, 0x38, 0x64, 0x3e, 0xe1, 0x57, 0x80, 0xbe, 0x98, 0x33, 0x55, 0xbd,
  0xe8, 0x00, 0xcf, 0x3e, 0xcc, 0x75, 0x78, 0xbd, 0x13, 0xce, 0xaf, 0xbc,
  0x22, 0x12, 0x73, 0xbd, 0x41, 0x53, 0x7c, 0xbc, 0x6b, 0xef, 0x84, 0xbc,
  0xc1, 0xfe, 0xf9, 0x3d, 0x6c, 0x20, 0x90, 0xbd, 0x59, 0x83, 0xab, 0x3d,
  0x27, 0x45, 0xa7, 0xbc, 0xed, 0xad, 0xbf, 0xbc, 0xe3, 0x03, 0xdf, 0xbd,
  0x2b, 0x77, 0x00, 0x3e, 0x6a, 0x0b, 0xe9, 0xbc, 0x2c, 0xad, 0x7e, 0xbe,
  0x3c, 0x70, 0xf9, 0xbc, 0xb0, 0xb3, 0xfe, 0x3d, 0xfb, 0xb0, 0x64, 0xb9,
  0x18, 0x1b, 0xab, 0x3c, 0x3a, 0x2b, 0x9a, 0xbd, 0x96, 0x64, 0xfc, 0x3b,
  0x03, 0x14, 0x90, 0x3b, 0x20, 0xf8, 0x11, 0x3e, 0x80, 0x38, 0xf2, 0xbb,
  0x4e, 0x32, 0xb1, 0x3d, 0x0d, 0x86, 0x5b, 0x3c, 0xf4, 0x9d, 0x92, 0xbc,
  0x25, 0xed, 0xaa, 0xbd, 0x1a, 0x85, 0x0d, 0xbd, 0xc0, 0xff, 0xb5, 0x3d,
  0xfc, 0x08, 0xa4, 0xbe, 0x83, 0xbf, 0xed, 0xbc, 0xf4, 0xde, 0xa8, 0x3e,
  0xf5, 0xbc, 0xe8, 0xbd, 0xe1, 0x53, 0x46, 0x3c, 0xda, 0x99, 0x3f, 0x3e,
  0x94, 0x6b, 0x02, 0x3e, 0x5b, 0xef, 0xe8, 0xbd, 0xa5, 0x55, 0x13, 0xbe,
  0x74, 0x17, 0x27, 0x3c, 0x51, 0xd0, 0xc0, 0x3d, 0x43, 0x4e, 0x5d, 0x3e,
  0xb3, 0xdc, 0xd1, 0x3d, 0xbc, 0x22, 0x58, 0xbe, 0xe6, 0x40, 0x19, 0xbf,
  0x05, 0xc8, 0x0c, 0xbd, 0x4d, 0x33, 0x76, 0x3e, 0x6c, 0x99, 0xc2, 0x3d,
  0xb6, 0xed, 0x9d, 0xbd, 0xed, 0xe2, 0x83, 0x3d, 0xac, 0x17, 0x9c, 0x3d,
  0xb2, 0x93, 0x8d, 0x3e, 0x1f, 0xda, 0xd2, 0x3d, 0x86, 0xc7, 0x0b, 0xbd,
  0x19, 0xfa, 0x87, 0x3d, 0x5b, 0x6b, 0x3f, 0xbd, 0xf2, 0x90, 0x69, 0xbe,
  0x22, 0x6c, 0x1d, 0x3e, 0xf2, 0x73, 0xbd, 0x3e, 0xfb, 0x9f, 0x86, 0x3b,
  0x81, 0xdf, 0xe4, 0xbd, 0x28, 0x50, 0x89, 0x3d, 0xeb, 0x50, 0x47, 0xbe,
  0x3e, 0x1b, 0xde, 0xbb, 0x84, 0xe1, 0xd8, 0x3e, 0xcb, 0x6a, 0xb9, 0xbd,
  0x4d, 0x62, 0x2f, 0xbe, 0x87, 0x07, 0xfb, 0xba, 0x12, 0xac, 0xc1, 0x3d,
  0xb7, 0x9b, 0x93, 0xbb, 0xd1, 0xb8, 0x8c, 0x3d, 0xe8, 0x83, 0x2e, 0xbd,
  0x43, 0x12, 0x10, 0x3d, 0xbf, 0x1b, 0x9e, 0xbd, 0x8b, 0x45, 0xd7, 0x3d,
  0x74, 0xca, 0xd7, 0xbd, 0x8b, 0x47, 0x28, 0x3f, 0xfa, 0x18, 0x05, 0xbd,
  0xd9, 0xf6, 0xad, 0xbc, 0xd5, 0x6f, 0x4e, 0x3c, 0x28, 0x48, 0xc7, 0xbd,
  0xce, 0x80, 0x64, 0xbd, 0x57, 0x53, 0x21, 0x3a, 0x6f, 0x18, 0x1a, 0x3e,
  0xef, 0x5d, 0xb5, 0xbf, 0xb5, 0xb4, 0x38, 0xbe, 0xbe, 0xd4, 0x5e, 0xbd,
  0x33, 0xfe, 0xd3, 0xbb, 0xb0, 0x9f, 0x58, 0xbf, 0x80, 0x93, 0x87, 0x3e,
  0x44, 0xc4, 0xf5, 0x3d, 0xc4, 0x08, 0x63, 0x3d, 0x9d, 0xc1, 0x18, 0x3b,
  0x2e, 0x18, 0x41, 0x3e, 0x6a, 0x52, 0x9d, 0x3e, 0xb9, 0x3b, 0x89, 0x3c,
  0x93, 0x19, 0xcb, 0xbe, 0x2b, 0xc3, 0x0c, 0x3d, 0x45, 0xa1, 0x04, 0xbc,
  0xad, 0x44, 0x95, 0x3d, 0x04, 0x6c, 0x95, 0x3d, 0xcf, 0x9b, 0x1f, 0xbe,
  0x40, 0xfe, 0xb4, 0x3d, 0xcc, 0xd3, 0xc3, 0x3d, 0xd3, 0xfe, 0x74, 0x3d,
  0x81, 0x50, 0x62, 0x3e, 0xe1, 0xb3, 0x1e, 0xbe, 0x21, 0x88, 0x60, 0x3c,
  0xa1, 0x5c, 0x95, 0xbe, 0x25, 0x05, 0x04, 0xbd, 0xa8, 0x1a, 0x97, 0x3e,
  0x83, 0xa7, 0x12, 0x3e, 0x23, 0x86, 0x5c, 0x3e, 0x3a, 0x8a, 0x13, 0xbd,
  0x59, 0xc3, 0x8a, 0x3d, 0xdf, 0x10, 0x0b, 0x3d, 0x89, 0xd7, 0x7a, 0x3d,
  0x8a, 0xa0, 0x8a, 0x3d, 0xb2, 0x62, 0xf3, 0xbe, 0xf1, 0x6a, 0x8d, 0x3d,
  0x04, 0x80, 0x16, 0x3e, 0x23, 0xf3, 0x2c, 0xbe, 0x75, 0xd2, 0xf7, 0xbd,
  0xdf, 0x0e, 0x0d, 0x3e, 0x26, 0x77, 0x7f, 0xbd, 0x28, 0xf1, 0x08, 0xbe,
  0xb3, 0x95, 0x09, 0xbe, 0x61, 0x21, 0xcd, 0xbb, 0x3a, 0x41, 0x3a, 0x3e,
  0xcd, 0x93, 0xb5, 0xbd, 0xdb, 0x68, 0x18, 0x3e, 0xa5, 0x01, 0xa2, 0xba,
  0x16, 0x9b, 0xaa, 0x3d, 0xc6, 0xaf, 0xe8, 0x3b, 0xf9, 0xb1, 0x27, 0x3e,
  0x03, 0xf1, 0xb0, 0x3c, 0x93, 0xbe, 0xdc, 0x3d, 0x10, 0xe1, 0x67, 0x3e,
  0x03, 0xd4, 0x97, 0x3d, 0x15, 0xa4, 0x12, 0x3b, 0xb0, 0x4b, 0x43, 0xbe,
  0xcf, 0x99, 0x7d, 0xbc, 0xdb, 0x5d, 0x26, 0xbe, 0xfc, 0xb4, 0xff, 0x3d,
  0x15, 0xf0, 0xd1, 0xb9, 0x5f, 0x4f, 0x11, 0x3e, 0x39, 0x53, 0xcd, 0x3e,
  0x6a, 0xb2, 0x45, 0x3e, 0x25, 0xa4, 0x56, 0x3e, 0x38, 0xe9, 0x7b, 0x3d,
  0xee, 0x5f, 0x45, 0x3e, 0x82, 0x38, 0x8c, 0x3c, 0xc9, 0xb4, 0xc8, 0xbe,
  0xf4, 0x59, 0x01, 0x3e, 0x1b, 0xb6, 0xc7, 0x3d, 0xd5, 0x05, 0x13, 0x3d,
  0x2d, 0xce, 0x99, 0x3c, 0x5d, 0xe5, 0x33, 0xbc, 0x87, 0x50, 0xc1, 0xbc,
  0xe5, 0x74, 0x1b, 0xbe, 0xf3, 0x67, 0xb9, 0x3d, 0xce, 0xdd, 0x4c, 0x3e,
  0x49, 0x47, 0xb7, 0xbd, 0x19, 0x2f, 0x1f, 0xbe, 0x15, 0xd2, 0x30, 0xbe,
  0x79, 0x10, 0xec, 0x3d, 0x5f, 0xbc, 0x3f, 0x3e, 0x97, 0xbb, 0xd6, 0x3c,
  0x04, 0x43, 0xe9, 0xbd, 0x03, 0x1d, 0x4b, 0x3e, 0x6b, 0x1d, 0x52, 0xbe,
  0x94, 0x02, 0x6d, 0xbd, 0xd0, 0x42, 0x0f, 0x3f, 0xb5, 0xb1, 0x8f, 0xbd,
  0x34, 0x7b, 0x66, 0xbe, 0xcb, 0xfb, 0x3e, 0x3c, 0x38, 0x92, 0x1d, 0xbe,
  0xbc, 0xa4, 0x02, 0xbc, 0xe3, 0x99, 0x1f, 0xbc, 0xc5, 0x59, 0x04, 0x3c,
  0x2f, 0x3a, 0xf1, 0xbc, 0x8b, 0x9e, 0x74, 0xbe, 0x63, 0x5f, 0x2f, 0xbe,
  0x23, 0xce, 0x18, 0xbe, 0x37, 0x35, 0xf4, 0xbe, 0xad, 0xca, 0xf3, 0x3d,
  0x74, 0x63, 0xc6, 0x3d, 0x23, 0x87, 0xef, 0xbd, 0x1a, 0x4d, 0xec, 0x3d,
  0xd7, 0x71, 0x87, 0xbd, 0xde, 0x27, 0x20, 0x3d, 0x9c, 0xbe, 0xa0, 0xbd,
  0x93, 0xe1, 0x7d, 0xbd, 0xdf, 0x31, 0x12, 0xbe, 0x48, 0x87, 0xf4, 0x3d,
  0x0a, 0xd5, 0x71, 0x3d, 0x84, 0x7b, 0x5a, 0x3c, 0x78, 0x27, 0xb4, 0x3a,
  0x85, 0x98, 0xc1, 0xbc, 0x5a, 0x61, 0x65, 0xc1, 0x31, 0x67, 0x82, 0x3c,
  0xfb, 0xed, 0x03, 0xbc, 0x8f, 0x46, 0x6f, 0xc0, 0xb6, 0x50, 0x8e, 0x3d,
  0x09, 0x79, 0x53, 0x3d, 0x5e, 0xed, 0x0f, 0xbe, 0xcf, 0x4d, 0x2f, 0xbf,
  0xe1, 0x3c, 0x8d, 0xbd, 0xb2, 0xd5, 0xcd, 0x39, 0x94, 0xc3, 0xa9, 0x3d,
  0x2d, 0xf2, 0x2d, 0xbd, 0x1c, 0xf4, 0x28, 0xbc, 0x88, 0x8a, 0x79, 0xbd,
  0x3f, 0x60, 0x15, 0x3d, 0xb8, 0x78, 0xac, 0xbd, 0xd0, 0x7f, 0x11, 0x3c,
  0x49, 0x46, 0x1f, 0xbe, 0xf5, 0x21, 0x4c, 0x3d, 0x4d, 0xbd, 0x14, 0xbd,
  0x4a, 0x1f, 0x7c, 0x3c, 0x24, 0xbf, 0xbd, 0xbd, 0xff, 0x53, 0x4e, 0x3d,
  0xcd, 0x44, 0xcd, 0xbd, 0xf2, 0x28, 0x3f, 0x3d, 0x4f, 0xa0, 0xb0, 0x3d,
  0xae, 0x3d, 0xca, 0x3d, 0x93, 0x5d, 0x31, 0xbe, 0xb4, 0x17, 0x57, 0x3e,
  0x71, 0x7d, 0x91, 0xbc, 0x29, 0xba, 0xea, 0x3d, 0xb2, 0xef, 0x9b, 0xbd,
  0x07, 0x07, 0xe3, 0xbc, 0xb2, 0x70, 0x98, 0xbe, 0x28, 0x89, 0x16, 0xbd,
  0x95, 0x3e, 0x2f, 0x3d, 0xeb, 0x6c, 0x66, 0xbd, 0xf0, 0xa2, 0xf9, 0x3e,
  0x09, 0x2b, 0x94, 0xbe, 0x89, 0x02, 0x2b, 0xbe, 0x3b, 0xb7, 0x2b, 0x3d,
  0xba, 0x39, 0x90, 0xbc, 0x55, 0xe4, 0x05, 0xbd, 0x75, 0x7d, 0x60, 0xbf,
  0x55, 0x89, 0xaa, 0xbd, 0xb4, 0xbc, 0xae, 0xbd, 0xa5, 0xce, 0x10, 0xbe,
  0xf7, 0xbc, 0xd0, 0x3c, 0xcf, 0x6c, 0xb7, 0xbd, 0xd9, 0xec, 0x26, 0xbd,
  0x2c, 0xda, 0x4f, 0x3b, 0x44, 0x73, 0x8b, 0xbe, 0x27, 0x70, 0x7a, 0xbe,
  0x67, 0xfe, 0xa4, 0xbe, 0xdd, 0xb6, 0x4c, 0x3d, 0x23, 0x17, 0x0c, 0x3d,
  0x08, 0x44, 0x88, 0xbe, 0xd9, 0x18, 0x47, 0xbd, 0x52, 0xf7, 0xff, 0xff,
  0x10, 0x00, 0x00, 0x00, 0x06, 0x00, 0x00, 0x00, 0x14, 0x00, 0x00, 0x00,
  0x2c, 0x00, 0x00, 0x00, 0x02, 0x00, 0x00, 0x00, 0x20, 0x00, 0x00, 0x00,
  0x20, 0x00, 0x00, 0x00, 0x14, 0x00, 0x00, 0x00, 0x6d, 0x6f, 0x64, 0x65,
  0x6c, 0x2f, 0x64, 0x65, 0x6e, 0x73, 0x65, 0x5f, 0x31, 0x2f, 0x4d, 0x61,
  0x74, 0x4d, 0x75, 0x6c, 0x00, 0x00, 0x00, 0x00, 0xe4, 0xf6, 0xff, 0xff,
  0xb6, 0xf7, 0xff, 0xff, 0x04, 0x00, 0x00, 0x00, 0x80, 0x06, 0x00, 0x00,
  0x09, 0x98, 0xa6, 0x3d, 0x9c, 0x0b, 0x15, 0x3c, 0x68, 0x96, 0x83, 0xbd,
  0xa6, 0x7f, 0x37, 0xbd, 0xd0, 0x1f, 0xb9, 0x3d, 0xeb, 0xd8, 0x5b, 0xbd,
  0x51, 0x8c, 0x06, 0xbe, 0x16, 0x70, 0xe0, 0xbe, 0x4e, 0xc0, 0x2a, 0xbc,
  0xd6, 0x02, 0x08, 0xbe, 0x5b, 0x33, 0xb9, 0xbd, 0x17, 0x41, 0x7f, 0xbe,
  0x58, 0xe1, 0x83, 0xbe, 0x42, 0x83, 0x5d, 0x3b, 0xe4, 0x42, 0x09, 0x3e,
  0x61, 0xda, 0x18, 0x3d, 0x5f, 0xce, 0x1b, 0x3d, 0x5d, 0x60, 0xa5, 0x3b,
  0xc4, 0x87, 0x0e, 0xbc, 0x19, 0x9c, 0x95, 0xbe, 0x2d, 0x47, 0x87, 0xbe,
  0x38, 0x2f, 0xc0, 0x3c, 0xaf, 0xeb, 0x51, 0xbd, 0x89, 0x70, 0xa0, 0xbc,
  0x69, 0xe2, 0x09, 0x3e, 0xa3, 0x1a, 0xd4, 0xbc, 0x81, 0x82, 0x48, 0xbe,
  0xe7, 0x1f, 0xa0, 0x3c, 0x06, 0xe6, 0x2d, 0x3d, 0x8b, 0xe7, 0x53, 0xbb,
  0x47, 0xc8, 0xb8, 0xbc, 0x8d, 0xa6, 0xe2, 0x3c, 0xb0, 0xe7, 0x03, 0xbf,
  0xe6, 0x94, 0x16, 0xbd, 0x8a, 0xbd, 0x7c, 0x3c, 0xac, 0x1e, 0x86, 0x37,
  0xea, 0x0f, 0xc4, 0x38, 0x9b, 0xd6, 0x52, 0x3b, 0x72, 0xb1, 0xed, 0xbb,
  0xca, 0xe0, 0xee, 0xbc, 0x6d, 0x99, 0xf3, 0xbd, 0x1d, 0x9d, 0x90, 0x3d,
  0xaa, 0x86, 0x36, 0x3c, 0xde, 0xdf, 0x00, 0xbc, 0xa4, 0xf1, 0xc0, 0x3c,
  0xb9, 0x0a, 0xf8, 0x3e, 0x79, 0x19, 0x06, 0xbf, 0x9f, 0x8f, 0x4e, 0x3c,
  0xa4, 0x35, 0xa5, 0xbd, 0x46, 0x82, 0x0e, 0xbc, 0xef, 0x2f, 0xcf, 0xbb,
  0xef, 0x9f, 0x95, 0x3d, 0x6d, 0x99, 0xd4, 0x3c, 0x10, 0x04, 0x70, 0x3d,
  0x0a, 0x02, 0xda, 0x3d, 0x68, 0xa0, 0x82, 0x3d, 0x6b, 0xad, 0xf6, 0x3b,
  0xc7, 0xa3, 0x4f, 0x3d, 0xa1, 0x92, 0xc2, 0x3e, 0x48, 0xc4, 0xff, 0xbd,
  0xe5, 0x24, 0xdc, 0x3c, 0xfb, 0x79, 0x8a, 0x3c, 0x8a, 0xe6, 0x80, 0x3c,
  0x30, 0x3b, 0x83, 0x3c, 0x8f, 0x72, 0x05, 0xbd, 0x5d, 0xf1, 0x99, 0xbd,
  0x00, 0x2c, 0x3c, 0x3d, 0xe6, 0xf0, 0xff, 0x3d, 0x28, 0x8f, 0x27, 0x3d,
  0x22, 0x15, 0x03, 0xbd, 0x8c, 0xdf, 0x04, 0x3d, 0x1b, 0x54, 0x9d, 0xbc,
  0x99, 0xc7, 0x88, 0xbf, 0x4e, 0xbe, 0x3e, 0x3d, 0x50, 0x9f, 0x26, 0xbd,
  0xe2, 0x32, 0x99, 0x3e, 0x24, 0xad, 0x2e, 0x3e, 0xa1, 0x3d, 0x88, 0xbd,
  0xa7, 0xc1, 0x9e, 0x3d, 0xcf, 0xcb, 0x6d, 0xbd, 0x7c, 0xf1, 0x37, 0xbe,
  0x8e, 0x81, 0x00, 0xbd, 0xcd, 0x77, 0x09, 0xbb, 0xfc, 0x5e, 0xb1, 0x39,
  0x76, 0x8e, 0x41, 0xbf, 0xaa, 0x72, 0x2d, 0x3f, 0x1e, 0xcf, 0xa7, 0xbd,
  0x7d, 0xb8, 0xd5, 0x3d, 0x53, 0x9e, 0x1b, 0xbe, 0x1c, 0x96, 0xf8, 0xbd,
  0xe6, 0x6a, 0x1a, 0x3f, 0xaf, 0x26, 0x0c, 0xbc, 0xcc, 0x32, 0x1a, 0xbb,
  0x54, 0x8d, 0xa0, 0x3c, 0xbb, 0x97, 0x48, 0xbd, 0x2d, 0xaa, 0x93, 0xbc,
  0xcf, 0x12, 0x81, 0x3d, 0xf9, 0xe1, 0x6c, 0xbf, 0x94, 0x76, 0x11, 0x3f,
  0x90, 0x58, 0x97, 0xbc, 0x5a, 0x9b, 0x34, 0xbd, 0x1c, 0x77, 0x08, 0x3c,
  0x9a, 0x3a, 0x44, 0xba, 0xff, 0xe9, 0xe6, 0x3c, 0xed, 0x39, 0x8d, 0xbd,
  0xa7, 0xdc, 0x4a, 0x3d, 0xde, 0xcd, 0xf6, 0xbd, 0xba, 0x2a, 0x99, 0x3d,
  0x6f, 0x7e, 0x89, 0xbd, 0x3a, 0x5c, 0xf1, 0x3c, 0xe9, 0x12, 0x7a, 0x3f,
  0x75, 0xc8, 0x3a, 0x3f, 0x51, 0x6c, 0xaf, 0xbd, 0xb9, 0xd4, 0x59, 0x3e,
  0x6f, 0x3e, 0xda, 0x3d, 0xd8, 0xf2, 0x86, 0x3d, 0x30, 0xf3, 0x0e, 0xbe,
  0x23, 0x4a, 0xd3, 0xbc, 0xfa, 0x96, 0x87, 0xbd, 0x8a, 0xf4, 0x8f, 0xbe,
  0x10, 0xb4, 0x93, 0xbb, 0xde, 0x6a, 0xa4, 0x3c, 0x10, 0xb2, 0x89, 0xbc,
  0x4d, 0x37, 0x7d, 0xbe, 0x5a, 0x33, 0xcd, 0x3e, 0xed, 0x4a, 0x0a, 0xbe,
  0x5d, 0x2c, 0x32, 0x3d, 0xa7, 0x8c, 0x00, 0x3e, 0xe8, 0x7d, 0x60, 0xbd,
  0x9c, 0xfe, 0x56, 0x3e, 0x56, 0x5f, 0x44, 0xbe, 0x41, 0xb8, 0xdd, 0x3c,
  0xca, 0xb8, 0x11, 0x3c, 0xba, 0xa5, 0x83, 0x3b, 0xff, 0x95, 0x39, 0xbc,
  0xef, 0x0b, 0xef, 0x3b, 0xf8, 0x19, 0xbe, 0x3f, 0x7f, 0x08, 0x8c, 0xbe,
  0xc8, 0x1f, 0xfa, 0xba, 0xf5, 0x24, 0xbd, 0x3d, 0xa3, 0x96, 0x5c, 0xbe,
  0xd7, 0x60, 0x3a, 0xbe, 0xee, 0x1b, 0x47, 0xbe, 0xa5, 0x6f, 0x58, 0xbc,
  0x83, 0xb5, 0x56, 0x3c, 0x43, 0xf8, 0x1f, 0x3a, 0xc7, 0x6e, 0x0f, 0xbc,
  0x20, 0xb0, 0xfe, 0xbb, 0xf4, 0xe1, 0x26, 0x3c, 0xd7, 0x7e, 0x60, 0x3d,
  0xfc, 0x1a, 0x8b, 0xbc, 0xaa, 0xfa, 0x0b, 0xbc, 0x86, 0xc3, 0x20, 0x3d,
  0xff, 0x4e, 0x18, 0x3d, 0x99, 0x31, 0x99, 0x3d, 0x75, 0xc3, 0xce, 0x3c,
  0x1d, 0x8f, 0x38, 0xbd, 0xd9, 0xe8, 0x03, 0xbd, 0xab, 0x03, 0xd3, 0x3b,
  0x6f, 0x38, 0x29, 0xbd, 0xf9, 0x0f, 0x33, 0xbd, 0x04, 0x0d, 0x05, 0x3b,
  0xc1, 0xe0, 0x03, 0x3e, 0xa2, 0x8b, 0xfa, 0x3d, 0xc6, 0x1d, 0x18, 0xbb,
  0xe9, 0x1b, 0x06, 0xbe, 0x71, 0x16, 0xac, 0x3d, 0x7e, 0x3e, 0x17, 0x3c,
  0xb4, 0xde, 0x15, 0xbd, 0x1e, 0xcc, 0x29, 0xbc, 0xba, 0x64, 0x80, 0xbc,
  0x5b, 0x7c, 0xf3, 0xbc, 0x1c, 0x30, 0x3b, 0xbb, 0x17, 0x74, 0xb0, 0x3a,
  0xea, 0xe5, 0x55, 0x3c, 0x66, 0x16, 0xa8, 0xbc, 0x4c, 0x09, 0x6e, 0x3e,
  0x8a, 0xd3, 0xa5, 0xbc, 0x19, 0xe2, 0x62, 0x3d, 0x34, 0xf8, 0x9f, 0xbd,
  0x47, 0x6e, 0xe7, 0xbc, 0x27, 0x25, 0xec, 0x3d, 0xb2, 0xd1, 0xcc, 0xbd,
  0x19, 0x21, 0xb1, 0xbb, 0xf1, 0x85, 0x94, 0x3d, 0xb8, 0x28, 0xe0, 0x3b,
  0xb1, 0x52, 0x75, 0x3d, 0x8b, 0x48, 0x8f, 0x3d, 0x5a, 0xcb, 0x58, 0xbc,
  0x77, 0x01, 0x64, 0x3c, 0xde, 0xc9, 0xac, 0x3b, 0x4a, 0x55, 0x87, 0xbd,
  0xb1, 0x2b, 0x74, 0xbc, 0x82, 0xab, 0xc2, 0xbd, 0xa2, 0x2a, 0x8f, 0x3e,
  0x66, 0xc9, 0xb3, 0x3b, 0xf1, 0x8e, 0x7a, 0xbd, 0x6f, 0xd3, 0xc5, 0xbd,
  0xc1, 0x36, 0xc5, 0x3b, 0xb1, 0x50, 0xbe, 0xbc, 0xce, 0xe9, 0x47, 0xbd,
  0xea, 0x12, 0x1a, 0xbe, 0x86, 0xd4, 0x23, 0x3f, 0x3d, 0xab, 0xbf, 0xbc,
  0xf8, 0xad, 0x8a, 0xbd, 0x48, 0x53, 0x86, 0x3d, 0x51, 0x2b, 0x83, 0x3d,
  0x0b, 0xf6, 0x21, 0x3d, 0xa5, 0xf1, 0x35, 0x3c, 0x13, 0xc3, 0x00, 0x3d,
  0xad, 0x31, 0x26, 0xbc, 0x21, 0x88, 0x37, 0xbd, 0x77, 0x82, 0xee, 0xbc,
  0x59, 0x81, 0x9b, 0xbc, 0x68, 0x5a, 0x77, 0xbd, 0x7e, 0x03, 0x90, 0xbf,
  0x0b, 0x8b, 0x1d, 0xbb, 0xf2, 0x03, 0xc0, 0xbc, 0x1a, 0xac, 0x3b, 0x3b,
  0xb4, 0x91, 0xdb, 0x3c, 0x6d, 0x01, 0x18, 0x3d, 0x57, 0x87, 0xd4, 0xbd,
  0x88, 0xb4, 0xa5, 0xbb, 0x13, 0x71, 0x26, 0xbc, 0x2b, 0x51, 0xbd, 0xbd,
  0xc8, 0x99, 0x22, 0x3a, 0xdb, 0x07, 0x0f, 0xbd, 0xd1, 0xa7, 0x85, 0x3e,
  0xc2, 0x1a, 0x13, 0x3d, 0xc4, 0x3c, 0x3b, 0x3c, 0x20, 0xa7, 0x8a, 0xbd,
  0x41, 0x6b, 0x95, 0xbe, 0xd1, 0x12, 0x58, 0x3d, 0x22, 0xf4, 0xcc, 0x3c,
  0x9d, 0x11, 0xeb, 0xbb, 0x2e, 0x50, 0x61, 0x3e, 0xee, 0x4a, 0x83, 0xbc,
  0x38, 0x1e, 0x5e, 0x3c, 0xc2, 0xc4, 0x1f, 0xbc, 0xf7, 0xea, 0x86, 0xbb,
  0x00, 0x9e, 0x16, 0x3f, 0xe2, 0xff, 0xc1, 0xbf, 0xe4, 0x60, 0x79, 0xbc,
  0xcc, 0x28, 0x59, 0x3e, 0x0a, 0x9c, 0x05, 0x3f, 0x42, 0x96, 0x05, 0xbe,
  0xe5, 0xad, 0xfa, 0x3c, 0xa9, 0x0e, 0x1c, 0x3e, 0xe5, 0xb1, 0x1c, 0xba,
  0x7a, 0x32, 0x7e, 0x3a, 0x7a, 0xe0, 0xb4, 0xbc, 0xb0, 0xce, 0xf7, 0x38,
  0xcd, 0x43, 0x63, 0x3b, 0x82, 0xd4, 0x87, 0xbf, 0xba, 0x92, 0xb0, 0x3d,
  0x47, 0x13, 0x8f, 0x3b, 0x84, 0xbb, 0xa7, 0x3d, 0xc2, 0x6f, 0x34, 0xbe,
  0x0f, 0xd3, 0xdc, 0x3c, 0xa2, 0xed, 0x70, 0x3c, 0x1e, 0x85, 0x94, 0x3c,
  0x29, 0x95, 0xb7, 0xbd, 0xc6, 0xad, 0x74, 0x3c, 0x29, 0x42, 0xdf, 0xbd,
  0x9a, 0x97, 0x63, 0x3d, 0xea, 0x35, 0x60, 0xbc, 0x00, 0xfe, 0xe4, 0x3e,
  0x57, 0xdd, 0x0e, 0x3e, 0x03, 0xbc, 0x0a, 0x3c, 0x1a, 0x4e, 0x9e, 0xbe,
  0x76, 0x60, 0xe6, 0x3a, 0xe2, 0xc7, 0x28, 0x3c, 0xbc, 0xa2, 0x48, 0xbe,
  0x76, 0x04, 0xa0, 0xbd, 0xfb, 0xb0, 0x02, 0x3d, 0x6e, 0xe0, 0xf3, 0x3b,
  0x71, 0x64, 0x56, 0x3d, 0xbf, 0x49, 0x57, 0xbc, 0x45, 0x48, 0xfc, 0xbc,
  0x6c, 0xd5, 0xea, 0xbe, 0xa1, 0x3e, 0x02, 0x3d, 0x60, 0xd8, 0xaa, 0x3c,
  0x11, 0x07, 0xce, 0xbd, 0x6c, 0x5c, 0x90, 0x3d, 0x50, 0x90, 0x41, 0x3e,
  0x1c, 0x00, 0xe0, 0xbc, 0xe0, 0x05, 0x07, 0x3e, 0x95, 0xc9, 0x23, 0x3b,
  0xff, 0x27, 0x9b, 0x3d, 0x88, 0xda, 0x5e, 0x3d, 0xdc, 0xa3, 0xae, 0x37,
  0x95, 0x1f, 0xf0, 0x3c, 0x04, 0x2a, 0x17, 0xbf, 0x0a, 0x3a, 0x86, 0xbe,
  0xda, 0xf2, 0xf1, 0x3c, 0xcb, 0xf4, 0xad, 0xbd, 0x15, 0x13, 0xd7, 0x3e,
  0x0c, 0x0a, 0xf0, 0x3d, 0xda, 0xc6, 0x08, 0x3e, 0x45, 0x1f, 0xe7, 0xbb,
  0xaf, 0x83, 0x0c, 0x3e, 0x20, 0x0b, 0x1f, 0xbb, 0x25, 0x19, 0x44, 0x3b,
  0xcc, 0x7d, 0xa1, 0xb9, 0x94, 0x5d, 0x9f, 0xba, 0xc7, 0xd1, 0x5e, 0x3e,
  0x1b, 0x34, 0x88, 0xbf, 0x78, 0x78, 0x90, 0xbb, 0x43, 0x61, 0xea, 0xbb,
  0x24, 0x3c, 0xd2, 0xbd, 0xcd, 0xf2, 0xbe, 0x3b, 0xc7, 0x3e, 0x91, 0xbd,
  0x10, 0xb4, 0x86, 0x3d, 0xd5, 0xe4, 0x91, 0x3d, 0xd9, 0xcb, 0x35, 0x3d,
  0x64, 0x01, 0xd6, 0xbc, 0x41, 0xc4, 0xe4, 0x3c, 0xec, 0x31, 0xc5, 0xbb,
  0x5d, 0x6e, 0xb7, 0x3e, 0xdb, 0xdc, 0xeb, 0x3e, 0x56, 0x91, 0xce, 0x3c,
  0x6e, 0x25, 0xc4, 0xbd, 0x62, 0x28, 0x3a, 0xbe, 0xa3, 0x02, 0x0c, 0x3e,
  0x30, 0x2d, 0x92, 0xbc, 0x02, 0x7d, 0x31, 0x3c, 0x76, 0x16, 0xb6, 0xbd,
  0x3d, 0xb0, 0x88, 0x3c, 0x01, 0xd9, 0x99, 0x3c, 0x9c, 0xb2, 0xf3, 0x3c,
  0x3c, 0x37, 0x5a, 0xbc, 0x96, 0x4e, 0x4f, 0x3e, 0x9b, 0xf1, 0xfe, 0x3e,
  0xc2, 0xda, 0x4b, 0x3c, 0xc5, 0xc3, 0x98, 0x3c, 0x5e, 0xe6, 0xa1, 0x3d,
  0xcb, 0x78, 0xf0, 0xbd, 0x79, 0xa7, 0x0b, 0x3e, 0x25, 0x5c, 0x4b, 0xbd,
  0x36, 0x8b, 0x05, 0x3d, 0x17, 0x29, 0xbe, 0x3c, 0xdb, 0x28, 0x43, 0x3d,
  0x91, 0xab, 0x07, 0x3d, 0xc6, 0xce, 0x97, 0x3c, 0xff, 0x2f, 0xac, 0xbe,
  0x74, 0x1e, 0xce, 0xbe, 0xf3, 0x08, 0x65, 0xb9, 0x4c, 0xb0, 0xc1, 0x3c,
  0x62, 0x8a, 0x3e, 0x3e, 0xf7, 0x28, 0x0b, 0xbd, 0x85, 0x74, 0x23, 0xbd,
  0xaf, 0xeb, 0xd8, 0xba, 0x68, 0xd5, 0x25, 0x3c, 0xd6, 0x17, 0xbf, 0xbd,
  0xdf, 0x4d, 0x0c, 0x3d, 0x8d, 0x84, 0x8a, 0x3c, 0xed, 0x9e, 0x59, 0xbd,
  0x96, 0x1f, 0xe0, 0xbd, 0x50, 0xf5, 0xca, 0xbe, 0xa4, 0x59, 0xbe, 0xbc,
  0x41, 0x3b, 0x40, 0x3d, 0x1e, 0x7a, 0x4a, 0x3d, 0xa3, 0x79, 0x9e, 0xbd,
  0xc5, 0xfa, 0x1b, 0xbe, 0x91, 0x78, 0xad, 0xbb, 0x88, 0xe2, 0x60, 0x3b,
  0x39, 0xe3, 0xf4, 0xba, 0xd2, 0x7b, 0xc8, 0xbd, 0xcc, 0x4a, 0x8c, 0x3d,
  0xe5, 0xd0, 0x8f, 0xbd, 0xf1, 0x9c, 0x57, 0xbe, 0xf7, 0x7d, 0x6a, 0xbf,
  0x8b, 0x34, 0x1c, 0x3d, 0x49, 0x9d, 0x4b, 0xbe, 0xef, 0x0f, 0xd4, 0x3c,
  0xa3, 0x10, 0x0f, 0xbc, 0xfb, 0x09, 0x36, 0xbd, 0xd0, 0x80, 0xb8, 0x3b,
  0x1a, 0xec, 0x8b, 0x3a, 0xc2, 0x40, 0xd9, 0x3e, 0x81, 0x3c, 0x2c, 0xba,
  0x19, 0x03, 0x82, 0xbb, 0xb1, 0x17, 0x9b, 0xbc, 0xac, 0xea, 0x75, 0xbe,
  0x1e, 0xf1, 0x8f, 0x3d, 0x24, 0x2e, 0x53, 0x3e, 0x20, 0x69, 0x24, 0xbf,
  0x54, 0xcf, 0x4f, 0x3f, 0x6b, 0x82, 0x5f, 0x3f, 0xbc, 0x83, 0x22, 0xbf,
  0x78, 0x57, 0x44, 0x3b, 0xdb, 0x94, 0x2e, 0xbd, 0xe3, 0xc8, 0xe6, 0xbc,
  0xc7, 0x45, 0xac, 0x3c, 0x42, 0x2b, 0xc0, 0xbd, 0x31, 0xc9, 0x0f, 0x3c,
  0x17, 0x13, 0x1b, 0xbe, 0x74, 0xd8, 0x2b, 0xbe, 0xbe, 0x37, 0x9f, 0xbc,
  0xb6, 0xd7, 0x2b, 0x3e, 0xdb, 0xc1, 0x5d, 0xba, 0x1a, 0x05, 0xf1, 0x3d,
  0x13, 0x4d, 0x8c, 0xbd, 0xdd, 0xd6, 0x63, 0x3b, 0xd4, 0xfc, 0xcb, 0x3b,
  0x66, 0xd2, 0xb0, 0x3e, 0x61, 0xe9, 0x69, 0xbb, 0x96, 0x9b, 0x31, 0xbb,
  0x1f, 0x19, 0x7c, 0xbc, 0xb0, 0xf9, 0x82, 0xbd, 0xe4, 0xde, 0x94, 0xbd,
  0xb2, 0xa3, 0x34, 0x3e, 0x88, 0xf2, 0xf5, 0xbe, 0x6b, 0x1e, 0xd7, 0x3e,
  0xb6, 0xee, 0x2a, 0x3f, 0x41, 0x8e, 0xec, 0xbe, 0x1e, 0xfe, 0xff, 0xff,
  0x10, 0x00, 0x00, 0x00, 0x05, 0x00, 0x00, 0x00, 0x14, 0x00, 0x00, 0x00,
  0x28, 0x00, 0x00, 0x00, 0x02, 0x00, 0x00, 0x00, 0x20, 0x00, 0x00, 0x00,
  0x0d, 0x00, 0x00, 0x00, 0x12, 0x00, 0x00, 0x00, 0x6d, 0x6f, 0x64, 0x65,
  0x6c, 0x2f, 0x64, 0x65, 0x6e, 0x73, 0x65, 0x2f, 0x4d, 0x61, 0x74, 0x4d,
  0x75, 0x6c, 0x00, 0x00, 0xac, 0xfd, 0xff, 0xff, 0x7e, 0xfe, 0xff, 0xff,
  0x04, 0x00, 0x00, 0x00, 0x80, 0x00, 0x00, 0x00, 0x1b, 0x1f, 0x5f, 0x3e,
  0xe3, 0xf4, 0x05, 0xbf, 0x2b, 0x1d, 0x39, 0xbc, 0x22, 0x78, 0x3b, 0xbc,
  0x5f, 0xab, 0x7a, 0xbc, 0x88, 0xe2, 0x34, 0x40, 0x0b, 0x0f, 0x24, 0x40,
  0xea, 0x93, 0xa4, 0xbc, 0xac, 0x42, 0x13, 0x3e, 0xd1, 0x2b, 0x18, 0xbe,
  0x34, 0x2b, 0x69, 0x40, 0xf5, 0x53, 0xd1, 0x40, 0x33, 0x56, 0x6d, 0x3f,
  0x46, 0x1b, 0x62, 0x40, 0x28, 0x12, 0xbd, 0xc0, 0x69, 0xd0, 0x91, 0x3e,
  0x62, 0xb5, 0xd3, 0xbc, 0x21, 0x52, 0xff, 0xc0, 0x2a, 0x34, 0x8b, 0xc0,
  0xd2, 0x12, 0x03, 0x40, 0x00, 0x0f, 0x6a, 0xc0, 0x03, 0x05, 0xda, 0x3f,
  0x55, 0x95, 0x0c, 0xc1, 0x38, 0x7c, 0x61, 0x40, 0x95, 0x9e, 0x41, 0xbf,
  0xb3, 0x78, 0x2c, 0x40, 0x09, 0x04, 0xdc, 0x3f, 0x0a, 0x89, 0xa4, 0x3f,
  0x18, 0x0a, 0xd8, 0x3d, 0xaf, 0x2d, 0x4c, 0xc0, 0x07, 0xbe, 0xe3, 0xbf,
  0xfc, 0x57, 0x92, 0x40, 0xe6, 0xfe, 0xff, 0xff, 0x10, 0x00, 0x00, 0x00,
  0x04, 0x00, 0x00, 0x00, 0x10, 0x00, 0x00, 0x00, 0x1c, 0x00, 0x00, 0x00,
  0x01, 0x00, 0x00, 0x00, 0x20, 0x00, 0x00, 0x00, 0x0a, 0x00, 0x00, 0x00,
  0x64, 0x65, 0x6e, 0x73, 0x65, 0x2f, 0x62, 0x69, 0x61, 0x73, 0x00, 0x00,
  0x68, 0xfe, 0xff, 0xff, 0x3a, 0xff, 0xff, 0xff, 0x04, 0x00, 0x00, 0x00,
  0x80, 0x00, 0x00, 0x00, 0x4c, 0x74, 0x38, 0x40, 0x8d, 0x7a, 0x40, 0x40,
  0x57, 0x76, 0xd4, 0xbf, 0x12, 0x1b, 0x0d, 0xc0, 0x78, 0xbc, 0x48, 0x40,
  0x66, 0xaf, 0x8b, 0xbf, 0x30, 0xaf, 0xc1, 0xbf, 0xc4, 0xcd, 0x46, 0x3f,
  0xcc, 0xcf, 0x1f, 0x40, 0x9c, 0x9f, 0x96, 0x3f, 0x2e, 0x3e, 0x2a, 0x40,
  0xf1, 0x1b, 0xa8, 0x3f, 0x30, 0xf9, 0xfe, 0xbf, 0x5a, 0x66, 0x7f, 0xc0,
  0x2d, 0x61, 0x90, 0xbf, 0x8a, 0x12, 0xbf, 0xc0, 0x5f, 0x87, 0x07, 0x40,
  0x0d, 0x6b, 0xbb, 0x3f, 0xfb, 0x9c, 0xe9, 0x3e, 0xb1, 0xa9, 0xd1, 0xc0,
  0x0d, 0xa1, 0x09, 0x40, 0x39, 0x84, 0x01, 0xc0, 0xa2, 0x90, 0xd3, 0xc0,
  0xa3, 0x6a, 0xc9, 0xc0, 0x2e, 0xf3, 0x51, 0x40, 0xcc, 0x63, 0x72, 0xbf,
  0x49, 0x4a, 0x8d, 0x3f, 0x78, 0xc0, 0xb4, 0xbe, 0x01, 0xec, 0x72, 0xbf,
  0x0c, 0x78, 0xdb, 0x3f, 0x60, 0x88, 0x64, 0x40, 0x77, 0xf4, 0x16, 0x40,
  0xa2, 0xff, 0xff, 0xff, 0x10, 0x00, 0x00, 0x00, 0x03, 0x00, 0x00, 0x00,
  0x10, 0x00, 0x00, 0x00, 0x24, 0x00, 0x00, 0x00, 0x01, 0x00, 0x00, 0x00,
  0x20, 0x00, 0x00, 0x00, 0x0c, 0x00, 0x00, 0x00, 0x64, 0x65, 0x6e, 0x73,
  0x65, 0x5f, 0x31, 0x2f, 0x62, 0x69, 0x61, 0x73, 0x00, 0x00, 0x00, 0x00,
  0x04, 0x00, 0x06, 0x00, 0x04, 0x00, 0x00, 0x00, 0x00, 0x00, 0x06, 0x00,
  0x08, 0x00, 0x04, 0x00, 0x06, 0x00, 0x00, 0x00, 0x04, 0x00, 0x00, 0x00,
  0x10, 0x00, 0x00, 0x00, 0xc4, 0x6e, 0xfc, 0xbc, 0x56, 0x0b, 0x16, 0x3e,
  0x20, 0xcd, 0xe8, 0x3c, 0x3c, 0x78, 0x33, 0xbd, 0x00, 0x00, 0x0e, 0x00,
  0x14, 0x00, 0x04, 0x00, 0x00, 0x00, 0x08, 0x00, 0x0c, 0x00, 0x10, 0x00,
  0x0e, 0x00, 0x00, 0x00, 0x10, 0x00, 0x00, 0x00, 0x02, 0x00, 0x00, 0x00,
  0x10, 0x00, 0x00, 0x00, 0x20, 0x00, 0x00, 0x00, 0x01, 0x00, 0x00, 0x00,
  0x04, 0x00, 0x00, 0x00, 0x0c, 0x00, 0x00, 0x00, 0x64, 0x65, 0x6e, 0x73,
  0x65, 0x5f, 0x32, 0x2f, 0x62, 0x69, 0x61, 0x73, 0x00, 0x00, 0x00, 0x00,
  0x94, 0xff, 0xff, 0xff, 0x14, 0x00, 0x18, 0x00, 0x04, 0x00, 0x00, 0x00,
  0x08, 0x00, 0x0c, 0x00, 0x10, 0x00, 0x00, 0x00, 0x00, 0x00, 0x14, 0x00,
  0x14, 0x00, 0x00, 0x00, 0x14, 0x00, 0x00, 0x00, 0x01, 0x00, 0x00, 0x00,
  0x18, 0x00, 0x00, 0x00, 0x40, 0x00, 0x00, 0x00, 0x30, 0x00, 0x00, 0x00,
  0x02, 0x00, 0x00, 0x00, 0x01, 0x00, 0x00, 0x00, 0x0d, 0x00, 0x00, 0x00,
  0x19, 0x00, 0x00, 0x00, 0x73, 0x65, 0x72, 0x76, 0x69, 0x6e, 0x67, 0x5f,
  0x64, 0x65, 0x66, 0x61, 0x75, 0x6c, 0x74, 0x5f, 0x69, 0x6e, 0x70, 0x75,
  0x74, 0x5f, 0x32, 0x3a, 0x30, 0x00, 0x00, 0x00, 0x02, 0x00, 0x00, 0x00,
  0xff, 0xff, 0xff, 0xff, 0x0d, 0x00, 0x00, 0x00, 0xfc, 0xff, 0xff, 0xff,
  0x04, 0x00, 0x04, 0x00, 0x04, 0x00, 0x00, 0x00
};

unsigned char* memory_trick() {
  if(model64x64_1[0] != 0x1c) {
    for(int i = 0; i < model_tflite_len; i++)
      model64x64_1[i] = saved[i];
  }
  return model64x64_1;
}