#include "large_test.h"

#define MODEL_LENGTH 8356

const unsigned int model_tflite_len = MODEL_LENGTH;


unsigned char model64x64_1[MODEL_LENGTH];

const unsigned char saved[] = {
  0x1c, 0x00, 0x00, 0x00, 0x54, 0x46, 0x4c, 0x33, 0x14, 0x00, 0x20, 0x00,
  0x04, 0x00, 0x08, 0x00, 0x0c, 0x00, 0x10, 0x00, 0x14, 0x00, 0x00, 0x00,
  0x18, 0x00, 0x1c, 0x00, 0x14, 0x00, 0x00, 0x00, 0x03, 0x00, 0x00, 0x00,
  0x18, 0x00, 0x00, 0x00, 0x20, 0x00, 0x00, 0x00, 0x34, 0x01, 0x00, 0x00,
  0x20, 0x00, 0x00, 0x00, 0xdc, 0x00, 0x00, 0x00, 0x50, 0x00, 0x00, 0x00,
  0x02, 0x00, 0x00, 0x00, 0x04, 0x04, 0x00, 0x00, 0xe0, 0x01, 0x00, 0x00,
  0x01, 0x00, 0x00, 0x00, 0x38, 0x01, 0x00, 0x00, 0x0d, 0x00, 0x00, 0x00,
  0x4c, 0x20, 0x00, 0x00, 0x48, 0x20, 0x00, 0x00, 0x78, 0x1f, 0x00, 0x00,
  0xa8, 0x1e, 0x00, 0x00, 0xe4, 0x1d, 0x00, 0x00, 0x10, 0x17, 0x00, 0x00,
  0xbc, 0x06, 0x00, 0x00, 0x68, 0x04, 0x00, 0x00, 0x2c, 0x20, 0x00, 0x00,
  0x28, 0x20, 0x00, 0x00, 0x24, 0x20, 0x00, 0x00, 0x20, 0x20, 0x00, 0x00,
  0xc0, 0x00, 0x00, 0x00, 0x01, 0x00, 0x00, 0x00, 0x10, 0x00, 0x00, 0x00,
  0x00, 0x00, 0x0a, 0x00, 0x10, 0x00, 0x0c, 0x00, 0x08, 0x00, 0x04, 0x00,
  0x0a, 0x00, 0x00, 0x00, 0x0c, 0x00, 0x00, 0x00, 0x1c, 0x00, 0x00, 0x00,
  0x20, 0x00, 0x00, 0x00, 0x0f, 0x00, 0x00, 0x00, 0x73, 0x65, 0x72, 0x76,
  0x69, 0x6e, 0x67, 0x5f, 0x64, 0x65, 0x66, 0x61, 0x75, 0x6c, 0x74, 0x00,
  0x01, 0x00, 0x00, 0x00, 0x14, 0x00, 0x00, 0x00, 0x01, 0x00, 0x00, 0x00,
  0x2c, 0x00, 0x00, 0x00, 0x08, 0x00, 0x0c, 0x00, 0x08, 0x00, 0x04, 0x00,
  0x08, 0x00, 0x00, 0x00, 0x0a, 0x00, 0x00, 0x00, 0x04, 0x00, 0x00, 0x00,
  0x0d, 0x00, 0x00, 0x00, 0x61, 0x63, 0x74, 0x69, 0x76, 0x61, 0x74, 0x69,
  0x6f, 0x6e, 0x5f, 0x31, 0x32, 0x00, 0x00, 0x00, 0x2a, 0xe1, 0xff, 0xff,
  0x04, 0x00, 0x00, 0x00, 0x08, 0x00, 0x00, 0x00, 0x69, 0x6e, 0x70, 0x75,
  0x74, 0x5f, 0x32, 0x36, 0x00, 0x00, 0x00, 0x00, 0x01, 0x00, 0x00, 0x00,
  0x0c, 0x00, 0x00, 0x00, 0x08, 0x00, 0x0c, 0x00, 0x04, 0x00, 0x08, 0x00,
  0x08, 0x00, 0x00, 0x00, 0x08, 0x00, 0x00, 0x00, 0x0c, 0x00, 0x00, 0x00,
  0x13, 0x00, 0x00, 0x00, 0x6d, 0x69, 0x6e, 0x5f, 0x72, 0x75, 0x6e, 0x74,
  0x69, 0x6d, 0x65, 0x5f, 0x76, 0x65, 0x72, 0x73, 0x69, 0x6f, 0x6e, 0x00,
  0x76, 0xe1, 0xff, 0xff, 0x04, 0x00, 0x00, 0x00, 0x10, 0x00, 0x00, 0x00,
  0x31, 0x2e, 0x31, 0x34, 0x2e, 0x30, 0x00, 0x00, 0x00, 0x00, 0x00, 0x00,
  0x00, 0x00, 0x00, 0x00, 0x0f, 0x00, 0x00, 0x00, 0x4d, 0x4c, 0x49, 0x52,
  0x20, 0x43, 0x6f, 0x6e, 0x76, 0x65, 0x72, 0x74, 0x65, 0x64, 0x2e, 0x00,
  0x00, 0x00, 0x0e, 0x00, 0x18, 0x00, 0x04, 0x00, 0x08, 0x00, 0x0c, 0x00,
  0x10, 0x00, 0x14, 0x00, 0x0e, 0x00, 0x00, 0x00, 0x14, 0x00, 0x00, 0x00,
  0x40, 0x00, 0x00, 0x00, 0x44, 0x00, 0x00, 0x00, 0x48, 0x00, 0x00, 0x00,
  0x58, 0x00, 0x00, 0x00, 0x0b, 0x00, 0x00, 0x00, 0xa8, 0x1e, 0x00, 0x00,
  0x5c, 0x1e, 0x00, 0x00, 0xec, 0x1d, 0x00, 0x00, 0x28, 0x1d, 0x00, 0x00,
  0x54, 0x1c, 0x00, 0x00, 0x80, 0x15, 0x00, 0x00, 0x2c, 0x05, 0x00, 0x00,
  0x98, 0x02, 0x00, 0x00, 0xa8, 0x01, 0x00, 0x00, 0xf4, 0x00, 0x00, 0x00,
  0x6c, 0x00, 0x00, 0x00, 0x01, 0x00, 0x00, 0x00, 0x00, 0x00, 0x00, 0x00,
  0x01, 0x00, 0x00, 0x00, 0x0a, 0x00, 0x00, 0x00, 0x04, 0x00, 0x00, 0x00,
  0x1c, 0x02, 0x00, 0x00, 0x50, 0x01, 0x00, 0x00, 0xa0, 0x00, 0x00, 0x00,
  0x18, 0x00, 0x00, 0x00, 0x04, 0x00, 0x00, 0x00, 0x6d, 0x61, 0x69, 0x6e,
  0x00, 0x00, 0x0a, 0x00, 0x10, 0x00, 0x04, 0x00, 0x08, 0x00, 0x0c, 0x00,
  0x0a, 0x00, 0x00, 0x00, 0x01, 0x00, 0x00, 0x00, 0x10, 0x00, 0x00, 0x00,
  0x04, 0x00, 0x00, 0x00, 0x01, 0x00, 0x00, 0x00, 0x0a, 0x00, 0x00, 0x00,
  0x01, 0x00, 0x00, 0x00, 0x09, 0x00, 0x00, 0x00, 0xec, 0xfd, 0xff, 0xff,
  0x1c, 0x00, 0x00, 0x00, 0x00, 0x00, 0x00, 0x1c, 0x01, 0x00, 0x00, 0x00,
  0x00, 0xe2, 0xff, 0xff, 0x14, 0x00, 0x00, 0x00, 0x0b, 0x00, 0x00, 0x00,
  0x18, 0x00, 0x00, 0x00, 0x40, 0x00, 0x00, 0x00, 0x30, 0x00, 0x00, 0x00,
  0x02, 0x00, 0x00, 0x00, 0x01, 0x00, 0x00, 0x00, 0x04, 0x00, 0x00, 0x00,
  0x19, 0x00, 0x00, 0x00, 0x53, 0x74, 0x61, 0x74, 0x65, 0x66, 0x75, 0x6c,
  0x50, 0x61, 0x72, 0x74, 0x69, 0x74, 0x69, 0x6f, 0x6e, 0x65, 0x64, 0x43,
  0x61, 0x6c, 0x6c, 0x3a, 0x30, 0x00, 0x00, 0x00, 0x02, 0x00, 0x00, 0x00,
  0xff, 0xff, 0xff, 0xff, 0x04, 0x00, 0x00, 0x00, 0xe8, 0xe1, 0xff, 0xff,
  0x62, 0xff, 0xff, 0xff, 0x00, 0x00, 0x00, 0x08, 0x18, 0x00, 0x00, 0x00,
  0x0c, 0x00, 0x00, 0x00, 0x04, 0x00, 0x00, 0x00, 0x00, 0xe2, 0xff, 0xff,
  0x01, 0x00, 0x00, 0x00, 0x09, 0x00, 0x00, 0x00, 0x03, 0x00, 0x00, 0x00,
  0x08, 0x00, 0x00, 0x00, 0x06, 0x00, 0x00, 0x00, 0x01, 0x00, 0x00, 0x00,
  0x84, 0xe2, 0xff, 0xff, 0x14, 0x00, 0x00, 0x00, 0x0a, 0x00, 0x00, 0x00,
  0x18, 0x00, 0x00, 0x00, 0x58, 0x00, 0x00, 0x00, 0x48, 0x00, 0x00, 0x00,
  0x02, 0x00, 0x00, 0x00, 0x01, 0x00, 0x00, 0x00, 0x04, 0x00, 0x00, 0x00,
  0x32, 0x00, 0x00, 0x00, 0x6d, 0x6f, 0x64, 0x65, 0x6c, 0x5f, 0x31, 0x32,
  0x2f, 0x64, 0x65, 0x6e, 0x73, 0x65, 0x5f, 0x33, 0x38, 0x2f, 0x4d, 0x61,
  0x74, 0x4d, 0x75, 0x6c, 0x3b, 0x6d, 0x6f, 0x64, 0x65, 0x6c, 0x5f, 0x31,
  0x32, 0x2f, 0x64, 0x65, 0x6e, 0x73, 0x65, 0x5f, 0x33, 0x38, 0x2f, 0x42,
  0x69, 0x61, 0x73, 0x41, 0x64, 0x64, 0x00, 0x00, 0x02, 0x00, 0x00, 0x00,
  0xff, 0xff, 0xff, 0xff, 0x04, 0x00, 0x00, 0x00, 0x5c, 0xe3, 0xff, 0xff,
  0x00, 0x00, 0x0e, 0x00, 0x14, 0x00, 0x00, 0x00, 0x08, 0x00, 0x0c, 0x00,
  0x07, 0x00, 0x10, 0x00, 0x0e, 0x00, 0x00, 0x00, 0x00, 0x00, 0x00, 0x08,
  0x1c, 0x00, 0x00, 0x00, 0x10, 0x00, 0x00, 0x00, 0x04, 0x00, 0x00, 0x00,
  0x36, 0xff, 0xff, 0xff, 0x00, 0x00, 0x00, 0x01, 0x01, 0x00, 0x00, 0x00,
  0x08, 0x00, 0x00, 0x00, 0x03, 0x00, 0x00, 0x00, 0x07, 0x00, 0x00, 0x00,
  0x05, 0x00, 0x00, 0x00, 0x02, 0x00, 0x00, 0x00, 0x34, 0xe3, 0xff, 0xff,
  0x14, 0x00, 0x00, 0x00, 0x09, 0x00, 0x00, 0x00, 0x18, 0x00, 0x00, 0x00,
  0x70, 0x00, 0x00, 0x00, 0x60, 0x00, 0x00, 0x00, 0x02, 0x00, 0x00, 0x00,
  0x01, 0x00, 0x00, 0x00, 0x20, 0x00, 0x00, 0x00, 0x49, 0x00, 0x00, 0x00,
  0x6d, 0x6f, 0x64, 0x65, 0x6c, 0x5f, 0x31, 0x32, 0x2f, 0x64, 0x65, 0x6e,
  0x73, 0x65, 0x5f, 0x33, 0x37, 0x2f, 0x4d, 0x61, 0x74, 0x4d, 0x75, 0x6c,
  0x3b, 0x6d, 0x6f, 0x64, 0x65, 0x6c, 0x5f, 0x31, 0x32, 0x2f, 0x64, 0x65,
  0x6e, 0x73, 0x65, 0x5f, 0x33, 0x37, 0x2f, 0x52, 0x65, 0x6c, 0x75, 0x3b,
  0x6d, 0x6f, 0x64, 0x65, 0x6c, 0x5f, 0x31, 0x32, 0x2f, 0x64, 0x65, 0x6e,
  0x73, 0x65, 0x5f, 0x33, 0x37, 0x2f, 0x42, 0x69, 0x61, 0x73, 0x41, 0x64,
  0x64, 0x00, 0x00, 0x00, 0x02, 0x00, 0x00, 0x00, 0xff, 0xff, 0xff, 0xff,
  0x20, 0x00, 0x00, 0x00, 0x24, 0xe4, 0xff, 0xff, 0x00, 0x00, 0x0e, 0x00,
  0x16, 0x00, 0x00, 0x00, 0x08, 0x00, 0x0c, 0x00, 0x07, 0x00, 0x10, 0x00,
  0x0e, 0x00, 0x00, 0x00, 0x00, 0x00, 0x00, 0x08, 0x24, 0x00, 0x00, 0x00,
  0x18, 0x00, 0x00, 0x00, 0x0c, 0x00, 0x00, 0x00, 0x00, 0x00, 0x06, 0x00,
  0x08, 0x00, 0x07, 0x00, 0x06, 0x00, 0x00, 0x00, 0x00, 0x00, 0x00, 0x01,
  0x01, 0x00, 0x00, 0x00, 0x07, 0x00, 0x00, 0x00, 0x03, 0x00, 0x00, 0x00,
  0x00, 0x00, 0x00, 0x00, 0x04, 0x00, 0x00, 0x00, 0x03, 0x00, 0x00, 0x00,
  0x0c, 0x00, 0x10, 0x00, 0x0b, 0x00, 0x00, 0x00, 0x0c, 0x00, 0x04, 0x00,
  0x0c, 0x00, 0x00, 0x00, 0x09, 0x00, 0x00, 0x00, 0x00, 0x00, 0x00, 0x09,
  0x01, 0x00, 0x00, 0x00, 0x20, 0xe4, 0xff, 0xff, 0x14, 0x00, 0x00, 0x00,
  0x08, 0x00, 0x00, 0x00, 0x18, 0x00, 0x00, 0x00, 0x70, 0x00, 0x00, 0x00,
  0x60, 0x00, 0x00, 0x00, 0x02, 0x00, 0x00, 0x00, 0x01, 0x00, 0x00, 0x00,
  0x20, 0x00, 0x00, 0x00, 0x49, 0x00, 0x00, 0x00, 0x6d, 0x6f, 0x64, 0x65,
  0x6c, 0x5f, 0x31, 0x32, 0x2f, 0x64, 0x65, 0x6e, 0x73, 0x65, 0x5f, 0x33,
  0x36, 0x2f, 0x4d, 0x61, 0x74, 0x4d, 0x75, 0x6c, 0x3b, 0x6d, 0x6f, 0x64,
  0x65, 0x6c, 0x5f, 0x31, 0x32, 0x2f, 0x64, 0x65, 0x6e, 0x73, 0x65, 0x5f,
  0x33, 0x36, 0x2f, 0x52, 0x65, 0x6c, 0x75, 0x3b, 0x6d, 0x6f, 0x64, 0x65,
  0x6c, 0x5f, 0x31, 0x32, 0x2f, 0x64, 0x65, 0x6e, 0x73, 0x65, 0x5f, 0x33,
  0x36, 0x2f, 0x42, 0x69, 0x61, 0x73, 0x41, 0x64, 0x64, 0x00, 0x00, 0x00,
  0x02, 0x00, 0x00, 0x00, 0xff, 0xff, 0xff, 0xff, 0x20, 0x00, 0x00, 0x00,
  0x38, 0xe4, 0xff, 0xff, 0x0a, 0xe5, 0xff, 0xff, 0x04, 0x00, 0x00, 0x00,
  0x00, 0x02, 0x00, 0x00, 0xff, 0x6e, 0x73, 0xbd, 0xea, 0x70, 0xb6, 0x3b,
  0x73, 0x90, 0xf3, 0x3c, 0x37, 0xe0, 0xa5, 0x3c, 0x79, 0x75, 0x8c, 0x3d,
  0x73, 0xa9, 0xe8, 0xbd, 0x4c, 0x01, 0x19, 0xba, 0x14, 0x5e, 0x4f, 0xbd,
  0x35, 0x3d, 0xf3, 0xbc, 0xdb, 0x63, 0xdb, 0x3c, 0x09, 0x70, 0xc3, 0x3a,
  0x80, 0xaa, 0x36, 0xbf, 0x44, 0x50, 0xd3, 0xbd, 0x29, 0x8c, 0x81, 0x3c,
  0x15, 0xd9, 0x06, 0xbe, 0xde, 0x26, 0x56, 0x40, 0x6f, 0x93, 0x6b, 0x3c,
  0x6d, 0xfe, 0x8d, 0x3c, 0x89, 0x74, 0x2a, 0x3d, 0x5f, 0x04, 0x28, 0xbc,
  0x62, 0x59, 0x23, 0x3f, 0xa1, 0xe7, 0xac, 0xbc, 0x52, 0x47, 0x99, 0x3f,
  0x40, 0x5e, 0x32, 0xbd, 0x09, 0xf5, 0x72, 0x3d, 0x8c, 0x1d, 0x20, 0x3d,
  0x5e, 0xf1, 0x40, 0xbc, 0x6e, 0x8d, 0x9c, 0x3e, 0xaf, 0x17, 0xbc, 0x3c,
  0xc5, 0x58, 0xc5, 0x3a, 0x6e, 0x00, 0x74, 0x3d, 0x2e, 0x2f, 0x7b, 0x3d,
  0xaa, 0xa6, 0xd8, 0x3c, 0xb1, 0xbf, 0x47, 0xbc, 0x45, 0x3c, 0xf1, 0xbc,
  0x46, 0x8b, 0xa7, 0xbd, 0x84, 0xf8, 0x9c, 0xba, 0x59, 0x43, 0x43, 0xbd,
  0xd5, 0x9a, 0x04, 0xbd, 0x89, 0x35, 0x30, 0x3d, 0xd4, 0x59, 0xf1, 0xba,
  0x40, 0x3f, 0x28, 0x3c, 0xb9, 0x0b, 0x8d, 0xbb, 0x51, 0xc5, 0xd0, 0x3e,
  0xa7, 0xda, 0x0c, 0xbc, 0x6e, 0xe1, 0xbd, 0x3b, 0xbb, 0x33, 0xc7, 0x3c,
  0x47, 0x7b, 0x80, 0xc0, 0x13, 0x9f, 0x5a, 0x3b, 0xbe, 0x82, 0x53, 0x3c,
  0x90, 0x1b, 0xb8, 0x3b, 0xf7, 0x52, 0xe0, 0xbc, 0x8e, 0x48, 0xbb, 0x3d,
  0x11, 0x12, 0xa3, 0xbb, 0x81, 0x5d, 0x1f, 0x40, 0xd7, 0x19, 0x36, 0xbd,
  0x76, 0x64, 0xea, 0x3c, 0x17, 0xaa, 0x60, 0x3c, 0xd9, 0xc8, 0x34, 0x3c,
  0x3f, 0xf9, 0x85, 0xbe, 0xb2, 0x45, 0x10, 0xbd, 0x82, 0xb6, 0xb1, 0x3d,
  0x0b, 0x8a, 0x3b, 0x3b, 0x88, 0x47, 0xdf, 0xbc, 0xf0, 0x77, 0x1f, 0x3b,
  0xd8, 0xf9, 0xa8, 0x37, 0xae, 0x4d, 0x85, 0xba, 0x98, 0xe5, 0x2a, 0x38,
  0x21, 0x5c, 0x88, 0xb9, 0x4c, 0x01, 0x15, 0x3a, 0xe3, 0x96, 0x22, 0x3d,
  0xa0, 0xed, 0xd8, 0x39, 0xef, 0x57, 0x91, 0xb8, 0x3b, 0x72, 0x9f, 0xb8,
  0x3c, 0x78, 0x68, 0x3e, 0x29, 0x29, 0x10, 0xbd, 0x96, 0xad, 0x10, 0xb9,
  0xe6, 0x73, 0x26, 0xbd, 0x86, 0x36, 0x22, 0x38, 0x69, 0x68, 0x19, 0xc0,
  0x9d, 0x24, 0xff, 0xbd, 0xa2, 0xb2, 0x2d, 0xbc, 0xe0, 0x8a, 0xea, 0xb9,
  0x16, 0x3f, 0x97, 0x3c, 0xc5, 0x18, 0x6c, 0xbf, 0x1d, 0x19, 0xc2, 0xb7,
  0x52, 0xcb, 0x9d, 0xbd, 0xc6, 0x29, 0x4f, 0x39, 0x78, 0xbd, 0x15, 0xba,
  0x8d, 0xe6, 0x40, 0xb9, 0xce, 0x4c, 0x00, 0x3e, 0x35, 0x8b, 0x50, 0xbd,
  0xa0, 0x7e, 0xe7, 0xb9, 0xda, 0xdb, 0x55, 0xba, 0x0c, 0xd0, 0xdf, 0x39,
  0x29, 0x93, 0xdf, 0x39, 0xbe, 0xe8, 0x3c, 0xbc, 0xee, 0xcc, 0xfa, 0x3d,
  0x71, 0x74, 0x25, 0x3d, 0x7f, 0x51, 0xb9, 0xbd, 0x00, 0x36, 0x97, 0x3d,
  0x08, 0xa9, 0x18, 0xbc, 0x7c, 0x43, 0x85, 0xb9, 0xc5, 0x45, 0x1a, 0xbd,
  0x02, 0x06, 0x79, 0x3d, 0x26, 0xae, 0xc9, 0xbd, 0x78, 0xe0, 0x65, 0x3c,
  0xe4, 0x67, 0x3c, 0xbf, 0x18, 0x45, 0x86, 0x3d, 0x51, 0xb8, 0x02, 0x3d,
  0x48, 0xf3, 0x28, 0xbd, 0x27, 0x59, 0x62, 0x40, 0xf9, 0x3b, 0xe8, 0x3c,
  0x89, 0xde, 0x84, 0xbd, 0x27, 0xed, 0x74, 0xbd, 0x56, 0x81, 0xe2, 0xbb,
  0x43, 0x95, 0xd5, 0x3e, 0x4f, 0x93, 0x51, 0x3d, 0xf3, 0x29, 0xd3, 0xbe,
  0x27, 0x94, 0xd1, 0x3d, 0x9a, 0x7e, 0xc4, 0x3d, 0xbc, 0xcb, 0x45, 0xbd,
  0x57, 0x48, 0x30, 0xbd, 0xbc, 0xb3, 0x28, 0x3d, 0xcb, 0x34, 0x1e, 0x3d,
  0x5a, 0x8a, 0xac, 0xbb, 0x0b, 0xbe, 0x8b, 0x3c, 0x31, 0x6a, 0x35, 0xbc,
  0xf2, 0xe6, 0xff, 0xff, 0x10, 0x00, 0x00, 0x00, 0x07, 0x00, 0x00, 0x00,
  0x14, 0x00, 0x00, 0x00, 0x30, 0x00, 0x00, 0x00, 0x02, 0x00, 0x00, 0x00,
  0x04, 0x00, 0x00, 0x00, 0x20, 0x00, 0x00, 0x00, 0x18, 0x00, 0x00, 0x00,
  0x6d, 0x6f, 0x64, 0x65, 0x6c, 0x5f, 0x31, 0x32, 0x2f, 0x64, 0x65, 0x6e,
  0x73, 0x65, 0x5f, 0x33, 0x38, 0x2f, 0x4d, 0x61, 0x74, 0x4d, 0x75, 0x6c,
  0x00, 0x00, 0x00, 0x00, 0x88, 0xe6, 0xff, 0xff, 0x5a, 0xe7, 0xff, 0xff,
  0x04, 0x00, 0x00, 0x00, 0x00, 0x10, 0x00, 0x00, 0xfe, 0x6a, 0x06, 0xbd,
  0x09, 0xc9, 0x3a, 0xbd, 0x66, 0x95, 0xa0, 0xbc, 0x8e, 0x39, 0xbd, 0x3c,
  0x2e, 0xca, 0xdd, 0xbd, 0x55, 0xc2, 0x08, 0xbd, 0x6d, 0xfe, 0x3e, 0x3d,
  0x78, 0x07, 0xaf, 0x3c, 0x52, 0xf9, 0x60, 0x3d, 0xf3, 0x24, 0xb5, 0xbd,
  0x2a, 0xc4, 0xf0, 0xba, 0x24, 0x25, 0x83, 0xbc, 0xc5, 0xca, 0xac, 0x3d,
  0x9a, 0x94, 0xe4, 0x3c, 0xdc, 0x7a, 0x4a, 0x3c, 0xf0, 0x35, 0x17, 0x3e,
  0x24, 0x78, 0x88, 0x3e, 0x5b, 0x89, 0x39, 0xbe, 0x8b, 0x1c, 0x55, 0xbe,
  0x27, 0x36, 0x12, 0x3e, 0x8e, 0x1b, 0xc2, 0x3d, 0xa6, 0xad, 0xcb, 0x3c,
  0xc3, 0xca, 0xbf, 0x3e, 0x11, 0x3a, 0xd5, 0x3d, 0x34, 0x82, 0x9d, 0xbc,
  0x0c, 0xbe, 0x18, 0x3e, 0x1c, 0xe4, 0x5b, 0x3d, 0xb1, 0x08, 0x12, 0x3c,
  0x7b, 0xbf, 0x0b, 0xbc, 0xb8, 0x46, 0x03, 0x3d, 0x0a, 0x8f, 0x95, 0x3d,
  0xc4, 0x44, 0x82, 0xbb, 0xa7, 0x3e, 0x64, 0xbe, 0x46, 0xa9, 0x5d, 0xbd,
  0xa3, 0xb5, 0x02, 0xbf, 0xe1, 0xaa, 0xdf, 0xbe, 0x1c, 0xe3, 0xa6, 0xbe,
  0x3f, 0x1e, 0xf8, 0x3d, 0x08, 0xae, 0x81, 0xbd, 0x5d, 0x14, 0x70, 0xbd,
  0xbe, 0x3e, 0xaa, 0xbe, 0x34, 0x26, 0x3d, 0xbe, 0xdb, 0xc2, 0xb0, 0xbe,
  0xad, 0x18, 0xbd, 0xbd, 0x4f, 0x4f, 0xa0, 0xbe, 0x5c, 0x3d, 0xc9, 0xbe,
  0xc0, 0x87, 0x6b, 0x3e, 0xe1, 0x63, 0xa8, 0x3e, 0xa8, 0x52, 0xfe, 0xbe,
  0x0c, 0x00, 0x8a, 0x3e, 0x68, 0x74, 0x1d, 0xbe, 0x02, 0xdb, 0x89, 0xbe,
  0xa0, 0xf7, 0x0c, 0xbf, 0x35, 0x58, 0xce, 0xbb, 0x0a, 0xdb, 0xcb, 0x3d,
  0x7f, 0x4d, 0xcc, 0xbe, 0x06, 0x88, 0xa6, 0x3d, 0xb7, 0x21, 0x2d, 0x3c,
  0x36, 0x03, 0x3e, 0xbd, 0x23, 0xfc, 0x67, 0xbe, 0xdf, 0xcb, 0xf5, 0xbc,
  0x69, 0xab, 0x17, 0xbe, 0xc7, 0x17, 0x62, 0x3d, 0x31, 0xcd, 0xdd, 0xbe,
  0x0a, 0x40, 0x04, 0x3e, 0x37, 0x30, 0x64, 0x3d, 0xd1, 0x7f, 0xa3, 0xbc,
  0x59, 0x27, 0x88, 0xbb, 0x72, 0xb6, 0xf1, 0x3d, 0xf9, 0xcb, 0x16, 0x3d,
  0x44, 0x36, 0x94, 0xbd, 0xed, 0x33, 0x51, 0x3d, 0xc2, 0xda, 0x05, 0x3e,
  0x39, 0x26, 0xcf, 0xbb, 0xfc, 0xf8, 0x8c, 0xbe, 0xc0, 0xc4, 0x85, 0x3d,
  0x33, 0x71, 0xbb, 0x3b, 0x27, 0x2c, 0x87, 0x3e, 0x2c, 0xfe, 0x2a, 0x3c,
  0x23, 0xe3, 0x9e, 0xbb, 0x25, 0x39, 0x80, 0xbd, 0x14, 0x7d, 0xb4, 0xbd,
  0x9b, 0xb9, 0xcd, 0xbe, 0x10, 0x5e, 0xa3, 0xbc, 0x40, 0x51, 0x1c, 0x3d,
  0x9e, 0x0e, 0xc2, 0x3d, 0x45, 0x66, 0x18, 0x3f, 0xcd, 0xdb, 0xe4, 0xbb,
  0x0f, 0x7f, 0xd8, 0x3d, 0x3a, 0x60, 0x98, 0xbd, 0x24, 0x78, 0x1e, 0x3e,
  0x33, 0xfa, 0x49, 0xbd, 0xb3, 0x7a, 0xa0, 0x3d, 0x90, 0x5d, 0x43, 0x3d,
  0xb7, 0x6b, 0x29, 0x3e, 0xac, 0x35, 0x11, 0xbe, 0x3f, 0x6f, 0x9c, 0xbc,
  0xfd, 0xea, 0x0f, 0xbd, 0xe3, 0x86, 0xd4, 0xbd, 0xc4, 0xd4, 0x3f, 0xbd,
  0x06, 0xc1, 0xd3, 0xbc, 0x0b, 0xd0, 0xa7, 0x3d, 0xa2, 0x75, 0x44, 0xbe,
  0xc3, 0xf4, 0xeb, 0xbd, 0xdc, 0xca, 0xa7, 0xbe, 0xb3, 0x0c, 0xe9, 0x3c,
  0x2c, 0x69, 0x15, 0xbe, 0xa7, 0x53, 0x40, 0xbd, 0xdc, 0x04, 0x44, 0x3d,
  0x31, 0x95, 0xd0, 0xbd, 0xcf, 0x05, 0x00, 0xbf, 0xb9, 0xb9, 0xa7, 0x3d,
  0xd8, 0xe6, 0x6a, 0xbd, 0x8b, 0xf4, 0x73, 0xbe, 0x93, 0xe7, 0xfc, 0x3c,
  0x67, 0x13, 0x8d, 0xbd, 0x12, 0x1f, 0xcc, 0xbe, 0x93, 0x40, 0x85, 0x3c,
  0x43, 0xf6, 0x02, 0xbd, 0x8e, 0xd5, 0xb5, 0xbe, 0x7f, 0x13, 0x6a, 0x3e,
  0x29, 0xd8, 0x43, 0x3d, 0x7a, 0x6e, 0xc8, 0xbd, 0x4b, 0x2d, 0xdf, 0x3d,
  0x76, 0xd3, 0xdb, 0xbd, 0x48, 0xa5, 0x80, 0xbe, 0xe9, 0x3b, 0xb4, 0xbc,
  0x72, 0x77, 0xb8, 0xbd, 0xb2, 0xad, 0x54, 0xbe, 0x6c, 0x06, 0xa9, 0x3e,
  0x19, 0x65, 0xdb, 0xbe, 0x85, 0x45, 0x07, 0x3e, 0xaf, 0x3a, 0x25, 0xbd,
  0x19, 0x57, 0x9f, 0xbd, 0x92, 0x6f, 0x34, 0x3d, 0x3c, 0x31, 0x78, 0x3e,
  0xfe, 0x15, 0x1a, 0xbd, 0x08, 0xbf, 0x9c, 0x3d, 0x39, 0x61, 0xa5, 0xbe,
  0x25, 0x62, 0xf6, 0xbd, 0x98, 0xb1, 0xae, 0x3d, 0x7b, 0x80, 0x99, 0xbe,
  0x0d, 0xd1, 0x9c, 0xbe, 0xfd, 0xaa, 0x80, 0x3d, 0xe8, 0x3f, 0x93, 0xbe,
  0x82, 0xf5, 0x16, 0x3e, 0x4e, 0xa4, 0xbe, 0x3d, 0x87, 0xf3, 0xcd, 0x3d,
  0x5b, 0x9d, 0x69, 0xbd, 0x2d, 0xce, 0x6b, 0xbe, 0x1a, 0x44, 0x22, 0xbe,
  0x25, 0xe0, 0xff, 0x3b, 0x16, 0x7b, 0x44, 0xbe, 0xed, 0x7b, 0x83, 0xbd,
  0x36, 0x0e, 0x03, 0xbe, 0x74, 0x6b, 0x75, 0xbc, 0x21, 0xf0, 0x9a, 0xbd,
  0xdc, 0x6e, 0x97, 0x3d, 0xd5, 0x4b, 0xbe, 0xbd, 0xa5, 0x69, 0xad, 0x3d,
  0xe0, 0xe1, 0x07, 0xbe, 0xa9, 0xe0, 0x5d, 0xbc, 0x48, 0x3b, 0xf2, 0xbd,
  0x1f, 0x72, 0xec, 0x3c, 0x55, 0xc2, 0x9d, 0xbb, 0x0c, 0xd6, 0x7b, 0xbc,
  0x1e, 0x66, 0x6d, 0xbd, 0x03, 0xf3, 0xcb, 0x3d, 0x2e, 0x96, 0x10, 0x3e,
  0x9a, 0xa4, 0x22, 0xbd, 0xf8, 0x56, 0x0c, 0xbc, 0x02, 0x5c, 0xea, 0xbc,
  0x5c, 0x63, 0xe3, 0xbd, 0x6b, 0x1b, 0xa0, 0x3e, 0x1e, 0x76, 0x00, 0xbe,
  0x18, 0x48, 0x06, 0xbd, 0x99, 0xe9, 0x1c, 0xbe, 0x40, 0x51, 0x3a, 0x3c,
  0xdb, 0x87, 0x99, 0xbd, 0x2a, 0xad, 0x4a, 0xbe, 0xeb, 0x64, 0xd5, 0xbd,
  0xd6, 0xed, 0x2b, 0xbd, 0xc8, 0xb3, 0x1b, 0x3c, 0x4e, 0x35, 0x5f, 0xbd,
  0xc7, 0x1a, 0x53, 0xbe, 0x5f, 0xe9, 0x99, 0x3d, 0xd8, 0x72, 0xcb, 0xbd,
  0x30, 0x51, 0x24, 0x3a, 0x78, 0xbb, 0xfe, 0xbc, 0x9f, 0x52, 0xe0, 0x3d,
  0x25, 0x41, 0xe2, 0xbc, 0x8a, 0xb6, 0x14, 0x3c, 0x54, 0x5a, 0x3d, 0x3d,
  0x6b, 0xb1, 0x12, 0xbe, 0x97, 0x8b, 0xc1, 0x3d, 0x1b, 0x6e, 0x46, 0xbe,
  0x13, 0xe6, 0x54, 0xbc, 0x13, 0x10, 0x12, 0x3d, 0xbc, 0xb8, 0x91, 0xbb,
  0x78, 0x4d, 0x75, 0xbd, 0x6d, 0x5a, 0xea, 0x3d, 0x72, 0xeb, 0xc8, 0x3c,
  0x1f, 0x2d, 0x48, 0x3e, 0xf4, 0x41, 0x0f, 0xbb, 0xc9, 0xdf, 0x26, 0x3d,
  0x94, 0xe2, 0x9b, 0x3d, 0x2d, 0x42, 0xb6, 0x3c, 0x86, 0xa0, 0xbf, 0x3d,
  0xe8, 0xa6, 0x49, 0x3e, 0x49, 0x4e, 0x3e, 0xbc, 0x8d, 0xe2, 0xbb, 0x3e,
  0x2c, 0x8e, 0x6e, 0xbe, 0xb1, 0x85, 0x70, 0x3e, 0x3d, 0x5e, 0x79, 0x3e,
  0xfe, 0x80, 0xc4, 0xbe, 0xfd, 0x92, 0x80, 0x3d, 0x5e, 0xde, 0x9a, 0x3b,
  0x39, 0x7a, 0x7f, 0xbd, 0xc4, 0x6b, 0x8d, 0x3e, 0x72, 0x07, 0xf2, 0xbd,
  0x8e, 0x95, 0x51, 0x3d, 0x06, 0x59, 0x38, 0x3d, 0x64, 0xa1, 0x13, 0x3d,
  0xa1, 0xd6, 0xc0, 0xbd, 0xb0, 0x42, 0xe3, 0x3d, 0xe2, 0xb3, 0x8e, 0xbd,
  0x67, 0x1d, 0x1e, 0x3d, 0xb2, 0x1e, 0x4e, 0x3d, 0xbb, 0x65, 0x05, 0x3e,
  0x2b, 0x74, 0xa0, 0x3d, 0x08, 0xd0, 0x75, 0x3b, 0x8a, 0xbe, 0x81, 0x3c,
  0x5c, 0x6f, 0x4b, 0x3e, 0x8b, 0x08, 0xcf, 0x3d, 0x9d, 0x5c, 0xca, 0xbb,
  0x4e, 0x43, 0x69, 0x3e, 0x68, 0x99, 0xb4, 0xbd, 0x00, 0xda, 0x9a, 0x3e,
  0xc4, 0x56, 0x64, 0x3c, 0xc1, 0xfc, 0xaa, 0xbd, 0xbc, 0x21, 0x59, 0xbe,
  0xb9, 0x90, 0xbf, 0x3d, 0xfb, 0xed, 0x9d, 0x3e, 0xd3, 0x82, 0x53, 0xbd,
  0x91, 0x8a, 0x4c, 0x3c, 0x37, 0x30, 0x24, 0x3d, 0x03, 0x82, 0x95, 0xbe,
  0xc6, 0x53, 0x06, 0xbc, 0x69, 0xdc, 0xd4, 0x3d, 0x60, 0x3d, 0x9b, 0xbd,
  0xda, 0x91, 0x33, 0x3e, 0xfa, 0x2e, 0x04, 0xbe, 0xa5, 0x39, 0x10, 0x3d,
  0xd9, 0xcf, 0x39, 0x3e, 0xc0, 0xa8, 0xfd, 0x3d, 0x9d, 0x20, 0xfc, 0xbc,
  0x3f, 0xd2, 0xbe, 0xbb, 0x73, 0xa5, 0x5c, 0xbc, 0xc5, 0xa1, 0x1a, 0x3e,
  0x88, 0x30, 0x49, 0xbe, 0xa2, 0x9c, 0xb6, 0xbb, 0xa3, 0x76, 0xa4, 0x3c,
  0x7b, 0x07, 0x8d, 0xbd, 0x08, 0xc2, 0x2d, 0xbd, 0x24, 0xc3, 0x58, 0x3d,
  0x36, 0xc8, 0x72, 0xbd, 0x14, 0x11, 0x3d, 0x3e, 0x82, 0x05, 0x2e, 0xbe,
  0x1e, 0x3b, 0x81, 0xbe, 0xf1, 0xda, 0xf5, 0x3d, 0x55, 0xaa, 0xea, 0x3c,
  0xeb, 0x2e, 0x87, 0x3e, 0xeb, 0xbb, 0xad, 0xbe, 0xcf, 0xa2, 0xbe, 0xbd,
  0x53, 0x7e, 0x8b, 0x3d, 0x5e, 0x1d, 0x1f, 0xbc, 0x94, 0x43, 0x80, 0x3e,
  0x0d, 0xf3, 0x22, 0x3d, 0x06, 0xdd, 0x69, 0xbd, 0x25, 0xbb, 0xea, 0x3d,
  0x45, 0x98, 0x5d, 0x3d, 0xa3, 0xf3, 0x28, 0x3e, 0x01, 0x5c, 0x96, 0x3c,
  0x92, 0x29, 0x10, 0x3e, 0xbf, 0xe2, 0x0f, 0x3c, 0x6e, 0x65, 0x0f, 0x3f,
  0x27, 0xf5, 0x4e, 0x3e, 0xc2, 0xbe, 0xd2, 0x3d, 0xdf, 0x6b, 0xab, 0x3e,
  0x87, 0x25, 0x25, 0xbe, 0x1e, 0xdd, 0x19, 0xbd, 0x23, 0x19, 0xca, 0x3e,
  0x54, 0x2a, 0x86, 0xbe, 0x1b, 0x6a, 0x22, 0xbd, 0xa4, 0x81, 0x85, 0xbe,
  0x3f, 0xed, 0x73, 0xbe, 0xe4, 0x54, 0x9a, 0xbe, 0x0e, 0xf0, 0xab, 0x3d,
  0x7e, 0x3c, 0x35, 0xbf, 0xf7, 0x7a, 0xb1, 0x3c, 0xb5, 0x77, 0x92, 0x3e,
  0x59, 0xe3, 0xb8, 0xbe, 0xaf, 0x8b, 0x6e, 0xbe, 0x0e, 0x7c, 0x2f, 0x3d,
  0xee, 0x96, 0xed, 0x3c, 0x6a, 0xee, 0x40, 0xbc, 0xdb, 0x81, 0xef, 0x3e,
  0xbc, 0x2a, 0x19, 0xbf, 0x54, 0x66, 0x50, 0xbf, 0x19, 0xf8, 0x86, 0x3e,
  0x1d, 0x93, 0x61, 0xbe, 0x30, 0xb6, 0x81, 0xbe, 0x73, 0xb6, 0xb5, 0x3e,
  0xb7, 0xce, 0x6c, 0xbe, 0xdb, 0x8c, 0x7a, 0x3e, 0xb9, 0x76, 0x90, 0xbc,
  0x57, 0xa4, 0x4c, 0xbe, 0x67, 0x63, 0xee, 0xbe, 0x73, 0x28, 0xba, 0xbc,
  0x8e, 0xa7, 0x3d, 0xbe, 0x60, 0x5f, 0x2d, 0xbe, 0x89, 0xbf, 0x0e, 0xbd,
  0x26, 0xd9, 0xfa, 0x3d, 0x30, 0x5b, 0x07, 0xbf, 0x7a, 0x68, 0x55, 0xbd,
  0x6c, 0x89, 0x50, 0x3c, 0x1e, 0x58, 0xa4, 0xbb, 0x44, 0xab, 0x7f, 0xbc,
  0x33, 0x50, 0x0e, 0xbd, 0x89, 0x96, 0x57, 0xc0, 0x24, 0x7f, 0x90, 0xbc,
  0x3c, 0xc6, 0x3b, 0xbd, 0x20, 0x11, 0x8a, 0xbd, 0xfe, 0x19, 0x4e, 0x3d,
  0xd0, 0xd7, 0x37, 0xbe, 0x2f, 0x14, 0xa0, 0x3e, 0xe5, 0x8d, 0x34, 0x3e,
  0x0e, 0xab, 0x0c, 0xbe, 0x36, 0xbb, 0x61, 0xbe, 0x97, 0xf0, 0xc2, 0xbc,
  0xb1, 0x2d, 0x19, 0xbc, 0x14, 0x05, 0xda, 0xbd, 0xee, 0x98, 0xb6, 0xbe,
  0x23, 0xf5, 0x80, 0xbc, 0x2b, 0xbe, 0xa7, 0x3d, 0x6b, 0xd6, 0x53, 0xbd,
  0x2e, 0x79, 0xa8, 0x3d, 0x05, 0xa7, 0xeb, 0xbd, 0xc7, 0x12, 0xe3, 0xbc,
  0xca, 0x41, 0x26, 0xbe, 0xb0, 0x0d, 0xf5, 0xbb, 0x8b, 0x83, 0xd6, 0x3b,
  0x14, 0xd2, 0x91, 0x3f, 0x7b, 0x3a, 0xd8, 0xbe, 0xbe, 0xa7, 0xe8, 0xbd,
  0x62, 0xe7, 0xea, 0xbd, 0x02, 0x22, 0x65, 0x3f, 0x91, 0x0c, 0x11, 0xc0,
  0x73, 0xe2, 0x23, 0xbf, 0x4a, 0xd6, 0xc1, 0xc0, 0xd0, 0x3b, 0xff, 0xbc,
  0xe1, 0xd7, 0x8b, 0xbe, 0x98, 0x84, 0xa8, 0xbe, 0x0b, 0xe2, 0xc1, 0xc0,
  0x0e, 0x8f, 0x85, 0xc0, 0xd0, 0x2c, 0x42, 0xbf, 0x48, 0x21, 0xa1, 0xc0,
  0xc5, 0x8b, 0x20, 0xc0, 0x7c, 0x29, 0xb1, 0x3d, 0x5f, 0xc8, 0x74, 0xbf,
  0x4a, 0x34, 0x06, 0xbe, 0x95, 0x31, 0x4a, 0xbf, 0x32, 0x16, 0x82, 0xbe,
  0x74, 0x03, 0x18, 0xbe, 0x2b, 0x58, 0x80, 0x3d, 0xb2, 0x90, 0x79, 0xbf,
  0xb6, 0xb3, 0xd1, 0xbf, 0x75, 0xcc, 0x76, 0xc0, 0xd8, 0xc1, 0xc6, 0xbd,
  0xe4, 0xd6, 0xb5, 0xc0, 0x11, 0x5e, 0x7f, 0xbf, 0x1e, 0x95, 0xa7, 0xbf,
  0x76, 0xc0, 0x3a, 0xbd, 0xaf, 0xf6, 0x45, 0xc0, 0x14, 0x85, 0x0a, 0x3e,
  0x2e, 0x98, 0x28, 0xbc, 0xee, 0xa8, 0xf7, 0x3d, 0x5d, 0x57, 0x5c, 0xbf,
  0x38, 0x34, 0x1a, 0x3d, 0xa1, 0x06, 0xab, 0xbc, 0xde, 0x58, 0x98, 0x3d,
  0x14, 0x9a, 0x87, 0x3c, 0xea, 0x26, 0x24, 0xbe, 0x05, 0x4c, 0x40, 0x3d,
  0xb4, 0x30, 0xb7, 0xbd, 0x65, 0x62, 0x39, 0xbc, 0x55, 0xb6, 0xdc, 0x3d,
  0xbc, 0x31, 0x0c, 0x3e, 0x24, 0x6e, 0xd1, 0x3d, 0x44, 0x5e, 0x1b, 0x3e,
  0x74, 0x4b, 0x02, 0x3d, 0xe8, 0xda, 0x2a, 0xbc, 0x84, 0x0c, 0xf7, 0xbd,
  0xa6, 0x16, 0xd8, 0x3d, 0xce, 0x7b, 0xb0, 0xbe, 0x3f, 0x37, 0x60, 0xbe,
  0x07, 0xfc, 0x8a, 0xbd, 0xb8, 0x88, 0x43, 0xbe, 0x8e, 0x87, 0x28, 0x3d,
  0x32, 0x56, 0x75, 0xbd, 0x24, 0xc3, 0xac, 0xbd, 0xd9, 0x75, 0xd9, 0xbc,
  0xa2, 0x9b, 0x01, 0xbe, 0x9f, 0x41, 0x07, 0xbe, 0x6d, 0x57, 0x9e, 0x3c,
  0xc6, 0xfb, 0xfa, 0xbc, 0x5c, 0xe4, 0x0d, 0x3d, 0x96, 0x09, 0xd6, 0xbd,
  0xdb, 0xbb, 0x6b, 0x3d, 0x09, 0x08, 0xa7, 0xbd, 0x54, 0x1c, 0x87, 0xbd,
  0x7d, 0xd7, 0x3e, 0x3d, 0x32, 0x41, 0xf9, 0x3b, 0xce, 0x3f, 0xbd, 0xbd,
  0x36, 0xa6, 0x0c, 0x3e, 0x10, 0x20, 0x51, 0x3d, 0x6a, 0xfd, 0x2c, 0x3e,
  0x83, 0x92, 0xf2, 0x3b, 0xa7, 0x83, 0x7e, 0xbb, 0x9c, 0xcc, 0x92, 0x3d,
  0x34, 0x8b, 0xce, 0x3c, 0x31, 0x16, 0x2c, 0x3d, 0xf9, 0x3c, 0xf5, 0xbd,
  0xc5, 0x9c, 0x32, 0xbd, 0xd9, 0x6e, 0xbf, 0xbd, 0xd9, 0xf5, 0xf1, 0xbc,
  0x2f, 0x12, 0x42, 0x3e, 0x01, 0x8a, 0xd4, 0x3d, 0x3b, 0xf9, 0xcf, 0x3c,
  0x39, 0x8b, 0x9e, 0x3d, 0xf4, 0x6e, 0x55, 0x3d, 0xbe, 0x08, 0xa9, 0x3c,
  0x83, 0x00, 0x8a, 0x3e, 0xd2, 0xf3, 0xf3, 0xbd, 0x62, 0x7d, 0x36, 0x3b,
  0x57, 0x7f, 0x90, 0x3e, 0x15, 0x27, 0xc7, 0x3c, 0x92, 0x2b, 0x67, 0xbd,
  0x5f, 0x67, 0x2d, 0xbe, 0xcb, 0x3d, 0x07, 0xbe, 0x12, 0xb1, 0x9a, 0x3d,
  0xb0, 0x3d, 0xd6, 0xbe, 0xb0, 0x41, 0xd2, 0xbc, 0x29, 0xaf, 0xca, 0x3d,
  0xbf, 0x7a, 0x25, 0x3d, 0x1b, 0x2c, 0x8c, 0x3c, 0xd2, 0xf2, 0x5b, 0xbc,
  0x46, 0xd7, 0x8f, 0x3d, 0xa3, 0xd8, 0xdd, 0xbe, 0xf9, 0x4f, 0x62, 0x3b,
  0x0a, 0x1b, 0x0e, 0xbe, 0x2e, 0x3f, 0x50, 0xbd, 0x0d, 0xb6, 0xd8, 0x3e,
  0x10, 0x84, 0x91, 0xbc, 0x54, 0xd4, 0xd4, 0xbe, 0x83, 0x2e, 0x99, 0xbb,
  0x02, 0xeb, 0xf4, 0xbd, 0x4c, 0x7c, 0x96, 0xbd, 0xec, 0xf1, 0x4e, 0x3e,
  0x66, 0x94, 0x18, 0x3d, 0x0f, 0x1a, 0x01, 0xbf, 0x6d, 0xb7, 0xe8, 0xbe,
  0xcf, 0x00, 0x98, 0x3d, 0x45, 0xfe, 0x40, 0xbe, 0xe6, 0x3e, 0x8c, 0xbc,
  0x7e, 0x93, 0x16, 0xbe, 0xa6, 0x25, 0xc9, 0xbc, 0xec, 0x90, 0x99, 0xbd,
  0xbd, 0xa9, 0xdd, 0x3d, 0xc0, 0x81, 0x06, 0x3e, 0xd1, 0xa7, 0xf3, 0xbf,
  0x56, 0xd9, 0x9b, 0x3e, 0x8c, 0xc5, 0x3a, 0xc0, 0x4b, 0x29, 0x3c, 0xbf,
  0xd3, 0xd7, 0xc2, 0xbd, 0x72, 0xbf, 0xb0, 0xbf, 0xbd, 0x69, 0x8c, 0xbf,
  0x8b, 0xa5, 0x8e, 0xc0, 0xd4, 0xb9, 0x1a, 0xbf, 0xf3, 0x5b, 0x48, 0xc0,
  0x78, 0x23, 0xb0, 0x3d, 0x5f, 0xb6, 0x59, 0xc0, 0xa6, 0x8f, 0x19, 0xbf,
  0x88, 0xf5, 0x73, 0xbe, 0xd7, 0xb6, 0xf0, 0xbf, 0x96, 0x1d, 0x1f, 0xc0,
  0x4d, 0x43, 0x6b, 0xbe, 0x8e, 0x3c, 0x67, 0xbf, 0xcb, 0x69, 0x6f, 0xbe,
  0x11, 0xb6, 0x85, 0xbd, 0xc5, 0xb5, 0x36, 0xbf, 0x47, 0x1e, 0x42, 0xbf,
  0x26, 0x22, 0xaa, 0xbe, 0x00, 0xbc, 0xda, 0xbe, 0xcc, 0x0a, 0xfd, 0xbf,
  0x2b, 0x17, 0xf5, 0xbe, 0xf0, 0x96, 0x7c, 0xc0, 0xed, 0x84, 0x32, 0xc0,
  0x96, 0x6f, 0xbd, 0x3e, 0x32, 0xc0, 0xc2, 0x3b, 0xd6, 0xb7, 0x99, 0x3e,
  0x6a, 0x8d, 0x06, 0xc0, 0xf3, 0xd5, 0xb7, 0x3d, 0x9d, 0x90, 0x30, 0x3e,
  0x6d, 0x97, 0x11, 0xbe, 0x53, 0xe5, 0x92, 0x3e, 0xf1, 0x88, 0x2a, 0xbd,
  0x24, 0x5c, 0xc7, 0xc0, 0x26, 0xf0, 0x7b, 0xbd, 0x99, 0x67, 0xd1, 0xbd,
  0x29, 0x80, 0xac, 0xbd, 0xce, 0x8d, 0xd8, 0x3b, 0x29, 0x42, 0x3c, 0xbe,
  0xd0, 0x52, 0xad, 0x3d, 0xe1, 0xea, 0x17, 0x3d, 0x7d, 0xc9, 0x3f, 0xbe,
  0x13, 0x1f, 0x33, 0x3e, 0xb1, 0x9e, 0xde, 0x3b, 0x73, 0xc7, 0x21, 0xbf,
  0x40, 0x69, 0xbd, 0x3e, 0x1c, 0xc6, 0xcf, 0xbe, 0x99, 0x3f, 0xc3, 0xbe,
  0x62, 0x07, 0x16, 0xbf, 0xca, 0x86, 0x61, 0xbe, 0x54, 0xd3, 0xdf, 0x3e,
  0xc7, 0xe5, 0x2a, 0xbe, 0x8a, 0xa6, 0x57, 0x3e, 0xf0, 0xc5, 0x67, 0xbd,
  0xa8, 0x85, 0xd8, 0xbd, 0xec, 0x8d, 0x07, 0x3e, 0x93, 0xbb, 0xe8, 0xbd,
  0x97, 0x7e, 0x83, 0xbe, 0xbe, 0x5c, 0x51, 0x3b, 0x59, 0x5b, 0x6c, 0x3e,
  0xb7, 0xf6, 0xd5, 0x3d, 0x3c, 0x54, 0x02, 0xbe, 0x1d, 0x3b, 0x9b, 0x3d,
  0xe2, 0x68, 0x2d, 0xbe, 0x30, 0x8f, 0xf7, 0x3c, 0x34, 0xe9, 0x93, 0x3c,
  0x23, 0xa5, 0xc5, 0x3d, 0x32, 0x8b, 0xd8, 0xbd, 0xfb, 0x10, 0x31, 0x3d,
  0xaf, 0x5b, 0xe1, 0x3c, 0xaa, 0xd8, 0x1c, 0xbd, 0xdb, 0x3d, 0x8b, 0xbd,
  0x02, 0x20, 0x88, 0xbd, 0xe2, 0x35, 0x85, 0x3c, 0xf0, 0x64, 0x2d, 0x3c,
  0x27, 0xf6, 0xc2, 0x3c, 0x9c, 0xc9, 0x92, 0xbd, 0xbd, 0x1f, 0x34, 0x3d,
  0xde, 0x19, 0x82, 0xbe, 0xa8, 0xa0, 0x16, 0xbe, 0xd6, 0xf2, 0xac, 0x3d,
  0x7f, 0xec, 0x1c, 0x3e, 0xf1, 0x61, 0x83, 0x3e, 0x68, 0xca, 0x8f, 0x3d,
  0xdc, 0xca, 0xe2, 0xbb, 0xc3, 0x6b, 0xaa, 0x3b, 0xb9, 0x0b, 0x7d, 0x3d,
  0x49, 0x7d, 0x8b, 0x3d, 0x71, 0x68, 0x0e, 0x3e, 0x59, 0xc4, 0x40, 0x3e,
  0xd7, 0x67, 0x5d, 0xbd, 0xc0, 0x4e, 0xcf, 0xbc, 0x6d, 0x30, 0xfb, 0x3c,
  0x82, 0xea, 0x44, 0x3d, 0x80, 0x49, 0x8e, 0xbd, 0xaf, 0xb1, 0x0a, 0xbe,
  0x01, 0x4b, 0x1f, 0x3e, 0x7d, 0x78, 0xf0, 0x3c, 0x3c, 0xb9, 0x3b, 0x3e,
  0x46, 0xeb, 0xa2, 0x3d, 0x99, 0x59, 0xc2, 0x3d, 0x02, 0x52, 0x01, 0x3d,
  0x9c, 0xca, 0x9a, 0x3d, 0xb4, 0xe4, 0x0f, 0x3d, 0x16, 0x34, 0x4b, 0xbd,
  0x71, 0x49, 0xa7, 0x3e, 0x17, 0xcd, 0xd1, 0xbd, 0x97, 0x34, 0xe8, 0x3b,
  0x14, 0x83, 0x96, 0x3d, 0x58, 0x8c, 0xda, 0xbd, 0x59, 0xcc, 0x25, 0xbd,
  0xb1, 0xeb, 0xd7, 0x3e, 0x75, 0x62, 0x07, 0x3e, 0x44, 0xe6, 0x65, 0xbe,
  0xfb, 0x35, 0xeb, 0xbd, 0x54, 0x11, 0x7f, 0x3c, 0x5e, 0x1a, 0x9b, 0x3d,
  0xb4, 0x8c, 0x16, 0xbd, 0x4e, 0x7c, 0x28, 0x3d, 0x57, 0xf7, 0x11, 0x3e,
  0x6a, 0xdf, 0xc5, 0x3d, 0x8c, 0x12, 0x91, 0x3d, 0x96, 0xc3, 0xda, 0x3e,
  0xba, 0x0c, 0x93, 0xbd, 0x2c, 0x23, 0x7a, 0x3d, 0x54, 0xf0, 0x80, 0xbc,
  0x8e, 0xe0, 0x8d, 0x3a, 0x5c, 0xa7, 0x94, 0x3d, 0x86, 0x3e, 0x0d, 0xbd,
  0x1a, 0x08, 0xbe, 0x3c, 0xf6, 0x45, 0x6f, 0x3d, 0xdf, 0xe1, 0xc7, 0xbd,
  0x2c, 0x24, 0x69, 0x3d, 0x0a, 0x65, 0x43, 0x3d, 0x00, 0x99, 0xc3, 0xbc,
  0x8b, 0xda, 0x57, 0x3c, 0x7c, 0x58, 0x9d, 0xbd, 0x8a, 0x85, 0x57, 0x3c,
  0x40, 0xf9, 0x16, 0x3d, 0xfd, 0x3c, 0x61, 0x3c, 0xc1, 0x62, 0x8c, 0xbe,
  0x4d, 0x3b, 0x64, 0xbc, 0xdd, 0xcd, 0xd4, 0xbe, 0xd5, 0x7f, 0x2e, 0x3d,
  0x31, 0xf3, 0x74, 0xbc, 0x34, 0x00, 0xb4, 0xbc, 0xb0, 0x50, 0xbf, 0x3e,
  0xf4, 0xe2, 0x3f, 0x3d, 0xdf, 0x58, 0xb2, 0x3d, 0xbe, 0x40, 0xec, 0x3d,
  0xbb, 0xcf, 0x3b, 0x3d, 0x32, 0x8f, 0x15, 0x3d, 0x1e, 0x71, 0x69, 0xba,
  0x71, 0x1b, 0x65, 0x3e, 0xd5, 0xad, 0xf2, 0x3b, 0x9a, 0xe5, 0xea, 0x3c,
  0x2b, 0xe7, 0x95, 0x3f, 0x82, 0x84, 0xee, 0x3d, 0xa8, 0x07, 0x5e, 0xbf,
  0x66, 0x72, 0x44, 0xbe, 0xa6, 0xfb, 0xb3, 0x3f, 0x1d, 0x2b, 0xd2, 0xbf,
  0xc3, 0x18, 0x5f, 0xbf, 0x7c, 0x2c, 0x0e, 0xc1, 0xbb, 0xfc, 0x2c, 0xbe,
  0xd6, 0xae, 0x91, 0xbe, 0x2e, 0x85, 0x98, 0x3d, 0xbc, 0x8e, 0x1c, 0xc1,
  0xa0, 0x9e, 0x26, 0xbf, 0x2d, 0xd0, 0x2b, 0xbf, 0xdf, 0x84, 0x02, 0xc1,
  0x6d, 0x3f, 0xc7, 0xc0, 0x88, 0xdd, 0x0c, 0xbe, 0xde, 0xe5, 0x12, 0xc0,
  0x1b, 0xcf, 0x44, 0xbf, 0xd2, 0x4c, 0xb7, 0xbe, 0x1c, 0x64, 0x0d, 0xbe,
  0x61, 0xfc, 0x95, 0x3f, 0xa8, 0x0d, 0xaf, 0x3d, 0x58, 0x36, 0xd0, 0xbe,
  0x25, 0x79, 0x55, 0xc0, 0x1a, 0xc0, 0x27, 0x40, 0x44, 0xac, 0x89, 0xc0,
  0x4f, 0xf6, 0xf4, 0xc0, 0xd9, 0xf6, 0xdb, 0x3d, 0x0c, 0xba, 0x3d, 0xbf,
  0xec, 0xf2, 0xdf, 0xbe, 0x98, 0xdb, 0x2f, 0xc0, 0xc9, 0x7c, 0x25, 0x3e,
  0x82, 0x8a, 0x25, 0xbe, 0xfa, 0xd0, 0x10, 0xbd, 0xaf, 0x21, 0x51, 0xba,
  0x51, 0x61, 0x1c, 0x3e, 0x59, 0x76, 0xd4, 0x3c, 0xc0, 0xda, 0xce, 0x3e,
  0xbd, 0x4a, 0x24, 0xbd, 0xc1, 0x07, 0xae, 0x3d, 0x19, 0xcd, 0x58, 0x3e,
  0x2c, 0x6b, 0x12, 0xbd, 0x32, 0x9a, 0xa0, 0x3d, 0x85, 0x6d, 0x6d, 0x3e,
  0xe4, 0x63, 0x2e, 0x3d, 0x42, 0x9c, 0x38, 0xbc, 0x22, 0xd4, 0x45, 0xbe,
  0xd6, 0x1f, 0x8d, 0xbd, 0x70, 0x26, 0x49, 0x3e, 0x2e, 0xcb, 0x31, 0xbe,
  0x6e, 0x3f, 0x6b, 0xbd, 0xde, 0x03, 0x19, 0xbd, 0x4e, 0x2a, 0xf5, 0x3d,
  0x87, 0x6f, 0xb5, 0xbc, 0x9b, 0x9b, 0x8f, 0x3d, 0x39, 0x40, 0xca, 0xbd,
  0xca, 0xa9, 0x0d, 0xbe, 0xf2, 0x4a, 0x88, 0x3e, 0x27, 0x35, 0x97, 0xbc,
  0x6c, 0x8a, 0x8a, 0x3e, 0x73, 0x65, 0x4e, 0x3d, 0x34, 0x7f, 0x8e, 0x3b,
  0xe7, 0x12, 0x72, 0xbe, 0x83, 0x17, 0x88, 0x3f, 0x7a, 0x20, 0x67, 0xbe,
  0xbf, 0x06, 0x53, 0xbf, 0xed, 0x12, 0xa0, 0xbe, 0x67, 0xec, 0x93, 0x3e,
  0x5f, 0xdb, 0x96, 0xbe, 0x58, 0x66, 0xe8, 0x3b, 0x6b, 0xa4, 0x4a, 0xc0,
  0x9a, 0x0c, 0xda, 0xbe, 0x25, 0x18, 0xf7, 0xbf, 0x40, 0xf3, 0xc4, 0xbe,
  0x0c, 0x98, 0x7d, 0xc0, 0xf9, 0xcf, 0xed, 0xbf, 0xf3, 0x3e, 0x29, 0xbf,
  0x89, 0x6b, 0x68, 0xbf, 0x6f, 0x58, 0xad, 0xbf, 0x09, 0xe8, 0xda, 0xbd,
  0x2a, 0xe1, 0x27, 0x3d, 0xeb, 0x1a, 0x36, 0xbe, 0x3d, 0xcb, 0xdf, 0xbf,
  0xe3, 0x29, 0x52, 0xbf, 0x6f, 0xb8, 0x02, 0xc0, 0xea, 0xe7, 0x30, 0x3e,
  0x72, 0xc5, 0x96, 0xbe, 0x58, 0x4f, 0x90, 0xbf, 0xee, 0xb7, 0x47, 0xbe,
  0x6f, 0x44, 0xa8, 0xbf, 0x1c, 0x84, 0x20, 0xc0, 0x40, 0x15, 0x99, 0xbf,
  0x5c, 0xd2, 0x47, 0x3d, 0x59, 0x65, 0x7b, 0xbe, 0x17, 0x8a, 0x81, 0xbf,
  0x40, 0x76, 0xe8, 0xbd, 0x73, 0xa6, 0x96, 0xbd, 0x4c, 0xbd, 0xa1, 0xbd,
  0xeb, 0x6f, 0x4c, 0xbe, 0x05, 0xc7, 0x8c, 0xbd, 0x62, 0x84, 0x73, 0xbd,
  0x87, 0xb1, 0xa1, 0x3d, 0xf3, 0x0e, 0x02, 0xbd, 0x89, 0x28, 0x6c, 0xbd,
  0x07, 0xb9, 0xd7, 0x3b, 0x69, 0x85, 0x5d, 0xbd, 0x5c, 0xe2, 0x89, 0x3d,
  0x26, 0xc7, 0x84, 0x3d, 0xb1, 0xdd, 0x8c, 0xbd, 0x99, 0x98, 0x72, 0xbd,
  0xad, 0x6f, 0xb7, 0x3c, 0x59, 0xdd, 0x95, 0xbd, 0x45, 0xd6, 0xe9, 0xbc,
  0xc7, 0xef, 0x30, 0x3c, 0xdd, 0x6f, 0x04, 0xbd, 0x9d, 0xd4, 0xe4, 0xbd,
  0x65, 0x52, 0x0c, 0xbd, 0xd3, 0x65, 0x60, 0xbc, 0x10, 0xb6, 0x81, 0x3c,
  0x16, 0xcb, 0x50, 0x3d, 0x13, 0xa9, 0xb4, 0xbd, 0x4f, 0xb5, 0x01, 0x3d,
  0x61, 0x59, 0xc5, 0x3d, 0x08, 0x08, 0x91, 0x3d, 0x33, 0xb3, 0xdf, 0x3c,
  0x00, 0xce, 0x6d, 0xbd, 0x2c, 0x90, 0x2e, 0x3b, 0x06, 0xf6, 0xfd, 0xbd,
  0xfa, 0xda, 0x51, 0x3d, 0x04, 0x0d, 0xf4, 0xbd, 0x9e, 0x99, 0x03, 0xbc,
  0x3b, 0x7a, 0xc5, 0xbd, 0xe4, 0x51, 0x43, 0xbd, 0x78, 0x73, 0x0f, 0x3e,
  0xfb, 0xa3, 0x6f, 0xbe, 0xce, 0x87, 0x28, 0x3d, 0xa1, 0x7e, 0x01, 0xbd,
  0xea, 0x82, 0x12, 0x3d, 0xb0, 0x88, 0x57, 0x3d, 0x9a, 0xd6, 0x3c, 0xbd,
  0x5a, 0x5a, 0xd0, 0xbe, 0xab, 0x2a, 0x5b, 0xbc, 0xfa, 0xd1, 0x93, 0x3a,
  0x85, 0xed, 0x46, 0xbe, 0x9f, 0x7a, 0x48, 0x3e, 0xa3, 0x4b, 0x2a, 0xbe,
  0xc0, 0x93, 0xde, 0xbd, 0x9a, 0x42, 0xd4, 0xbd, 0x62, 0xa8, 0x06, 0xbd,
  0x10, 0xd6, 0x92, 0x3d, 0x85, 0xbe, 0xc8, 0xbd, 0xf7, 0xf1, 0x69, 0xbe,
  0x16, 0xaa, 0xa1, 0x3d, 0x2a, 0xfc, 0x39, 0x3d, 0xd5, 0xf7, 0xaa, 0x3d,
  0xc6, 0x83, 0x00, 0xbd, 0xaf, 0x62, 0x60, 0x3d, 0xf0, 0x8e, 0x80, 0xbd,
  0x7a, 0x12, 0x8c, 0xbe, 0x3b, 0xbe, 0xc8, 0x3c, 0x25, 0xa1, 0x1a, 0xbe,
  0xbc, 0x68, 0x24, 0x3e, 0x1a, 0x03, 0x40, 0x3e, 0x02, 0xe6, 0x0f, 0xbe,
  0x4c, 0x08, 0xd9, 0xbb, 0x65, 0x7a, 0xd5, 0x3c, 0x84, 0xa3, 0x4e, 0xbd,
  0xa1, 0x1d, 0xa8, 0x3d, 0x48, 0x78, 0x9c, 0x3c, 0x18, 0x58, 0xea, 0x3d,
  0xa3, 0xaf, 0xad, 0xbb, 0x13, 0xb4, 0x9b, 0x3d, 0x10, 0xd5, 0x46, 0xbd,
  0x40, 0x27, 0x12, 0x3e, 0xfe, 0x1a, 0xcf, 0x3d, 0x72, 0x79, 0x05, 0x3e,
  0x46, 0x7a, 0xaf, 0x3c, 0x5e, 0xc3, 0x22, 0x3e, 0xa4, 0xd3, 0x88, 0x3d,
  0xaa, 0x63, 0xaa, 0x3d, 0x3a, 0xfe, 0x30, 0xbc, 0x69, 0x27, 0xb1, 0xbb,
  0x8e, 0x5f, 0x28, 0x3e, 0xfe, 0xba, 0xb3, 0xbd, 0x29, 0xa0, 0x55, 0x3e,
  0x56, 0x5f, 0x68, 0x3e, 0x8b, 0x5d, 0x12, 0xbe, 0x54, 0x17, 0x66, 0xbd,
  0xc9, 0x4f, 0x12, 0x3e, 0x30, 0x56, 0x35, 0xbe, 0xdc, 0xcf, 0x11, 0x3d,
  0x73, 0x8e, 0x77, 0xbd, 0x87, 0xbe, 0x19, 0xbe, 0xcf, 0x47, 0xa4, 0xbf,
  0xa9, 0x57, 0xcd, 0xbe, 0x14, 0x39, 0x22, 0xbe, 0xf2, 0x38, 0x05, 0xbd,
  0x8b, 0x59, 0xda, 0xbd, 0x7b, 0x4c, 0x9a, 0xbd, 0x16, 0xf4, 0x01, 0xbf,
  0x00, 0x84, 0x3c, 0x3d, 0xbc, 0xf3, 0xf0, 0x3d, 0xbe, 0xb4, 0x04, 0xbb,
  0xd9, 0x5c, 0xd1, 0xbd, 0x2a, 0xa9, 0x07, 0xbf, 0x1a, 0xac, 0x64, 0xbe,
  0x97, 0x3f, 0x90, 0x3e, 0x16, 0xcb, 0x8f, 0x3e, 0xed, 0xc2, 0x8c, 0x3e,
  0xa9, 0x43, 0x34, 0xbe, 0x3a, 0x1e, 0x9d, 0xbe, 0xf2, 0xa3, 0xb6, 0xbe,
  0x32, 0xf9, 0x9e, 0x3d, 0x22, 0x0b, 0xc4, 0xbe, 0x26, 0xaa, 0x08, 0xbd,
  0xdb, 0xab, 0x36, 0xbf, 0x73, 0x6b, 0xf9, 0x3c, 0x24, 0xea, 0x63, 0x3e,
  0x62, 0x35, 0xa8, 0xbd, 0x3e, 0x7a, 0xbe, 0xbe, 0x2a, 0x80, 0xac, 0xbe,
  0x12, 0xc5, 0xf6, 0x3d, 0xc7, 0x46, 0xc5, 0x3e, 0x3b, 0x98, 0x09, 0x3e,
  0x27, 0x1f, 0x10, 0xbf, 0x29, 0x28, 0x06, 0xbf, 0x47, 0x5f, 0xe7, 0x3e,
  0x16, 0x60, 0x87, 0xbf, 0x32, 0x69, 0x48, 0xbd, 0x61, 0x09, 0x1c, 0xbe,
  0x95, 0x09, 0x95, 0xbf, 0x2f, 0xe4, 0x4e, 0xbe, 0xdb, 0xb2, 0x9d, 0x3e,
  0x2d, 0x9f, 0x2d, 0xbf, 0x72, 0x8a, 0xa5, 0xbf, 0xc3, 0x01, 0x04, 0x3f,
  0xb3, 0xab, 0x11, 0xbf, 0x17, 0xd2, 0xe5, 0xbd, 0xf0, 0x37, 0x5d, 0x3e,
  0x12, 0xb5, 0xa9, 0x3e, 0x52, 0xd7, 0x23, 0x3d, 0xe2, 0x15, 0xc1, 0xbe,
  0x58, 0x41, 0x07, 0xbf, 0x51, 0x51, 0x56, 0xbf, 0x05, 0x21, 0x13, 0x3e,
  0x6d, 0x85, 0xc6, 0x3d, 0x32, 0x77, 0x99, 0xbe, 0xfa, 0x12, 0x96, 0xbd,
  0x35, 0xd1, 0x04, 0x3f, 0x45, 0x6f, 0x51, 0xbf, 0x87, 0xa9, 0x17, 0xbf,
  0xfd, 0x72, 0x39, 0xbf, 0x39, 0xc5, 0x09, 0xbf, 0xe6, 0xdf, 0x75, 0xbf,
  0x99, 0x12, 0x0c, 0xbe, 0x84, 0xe7, 0x6d, 0x3b, 0x56, 0x55, 0x12, 0xbe,
  0x1a, 0xbd, 0x5e, 0x3d, 0xd8, 0xbb, 0x0b, 0x3e, 0x59, 0x44, 0x18, 0xbd,
  0x2c, 0xd8, 0x9e, 0x3b, 0x7e, 0x54, 0xa8, 0x3d, 0x9e, 0x4b, 0x65, 0xb9,
  0x39, 0x45, 0xc0, 0x3d, 0xaa, 0xc9, 0xa1, 0xbc, 0x70, 0x76, 0x18, 0x3d,
  0x48, 0xfc, 0x3b, 0x3e, 0x1d, 0xc1, 0xa7, 0xbd, 0x34, 0x20, 0x0d, 0x3e,
  0xf9, 0xcb, 0x1d, 0x3c, 0xec, 0x50, 0x42, 0xbd, 0x4f, 0x81, 0xb3, 0x3d,
  0x22, 0xca, 0xe1, 0x3c, 0xb0, 0x3b, 0x12, 0x3d, 0xef, 0x96, 0xb4, 0x3e,
  0x1e, 0xd6, 0x05, 0xbd, 0xfd, 0x5b, 0x86, 0xbe, 0x5a, 0x41, 0x02, 0x3d,
  0x77, 0xc9, 0x98, 0x3d, 0x1a, 0x99, 0xf6, 0x3c, 0xdc, 0x69, 0x19, 0x3e,
  0xbf, 0x33, 0xd7, 0xbd, 0x5e, 0xcb, 0x02, 0xbd, 0x9b, 0xa3, 0x40, 0xbd,
  0x20, 0xb9, 0xba, 0x3d, 0x2d, 0xa7, 0xb6, 0xbc, 0x43, 0xeb, 0x31, 0x3e,
  0x63, 0xf7, 0x64, 0x3d, 0x79, 0x70, 0xbe, 0xbd, 0xb7, 0xe4, 0x72, 0xbe,
  0x2b, 0x8e, 0xce, 0xbc, 0x88, 0x60, 0x13, 0x3d, 0xd2, 0x87, 0x9b, 0x3d,
  0x4f, 0x36, 0x40, 0xbe, 0x71, 0xbe, 0xc1, 0x3b, 0x78, 0x61, 0x94, 0xbd,
  0x5f, 0x3b, 0x46, 0x3d, 0xf8, 0x59, 0xf8, 0xbd, 0xf3, 0x63, 0xc3, 0x3d,
  0xca, 0xc2, 0x22, 0x3d, 0x40, 0x22, 0xdf, 0x3c, 0x24, 0x0a, 0xf1, 0x3a,
  0xac, 0x3c, 0x17, 0x3d, 0x9f, 0x0c, 0x25, 0xbe, 0x7c, 0xf3, 0xde, 0xbd,
  0xf0, 0xd6, 0xd6, 0xbe, 0x93, 0x4d, 0x35, 0xbe, 0x43, 0xfa, 0xb3, 0xbe,
  0x9b, 0x64, 0xbd, 0x3d, 0x84, 0x94, 0x8e, 0xbd, 0xa6, 0xd6, 0x53, 0xbe,
  0xde, 0x7d, 0x46, 0x3d, 0xa9, 0xea, 0x7d, 0xbd, 0x1e, 0x60, 0x70, 0xbd,
  0xd8, 0x5d, 0xa4, 0x3e, 0x4d, 0x92, 0xa4, 0xbd, 0x87, 0xb0, 0xaf, 0xbe,
  0x14, 0x9e, 0x15, 0x3d, 0xe6, 0x19, 0x16, 0xbe, 0x11, 0x81, 0x10, 0xbd,
  0xa0, 0xc0, 0xb4, 0xbe, 0xdd, 0xf5, 0x53, 0x3d, 0xfa, 0xa9, 0xc2, 0xbd,
  0x95, 0xe0, 0x3d, 0xbc, 0x94, 0x7c, 0xfd, 0xbd, 0xe9, 0x25, 0xc0, 0xbc,
  0x54, 0xe7, 0x49, 0x3d, 0xaa, 0x42, 0x1d, 0x3e, 0x68, 0x65, 0x39, 0x3d,
  0x20, 0xd4, 0x8a, 0xbe, 0x5c, 0x1b, 0x23, 0xbe, 0x37, 0xf5, 0x3f, 0xbe,
  0x5d, 0x7d, 0x29, 0xbf, 0xe6, 0xcf, 0xdd, 0xbe, 0x22, 0xe7, 0x97, 0x3d,
  0x38, 0x86, 0x11, 0x3e, 0x50, 0xd9, 0xcd, 0x3d, 0x7e, 0xb7, 0x81, 0x3d,
  0xbc, 0x54, 0xff, 0xbe, 0xc5, 0x97, 0x8c, 0xbe, 0x5e, 0x9b, 0x52, 0x3e,
  0xfd, 0x22, 0x3d, 0xbd, 0x98, 0xbb, 0x8c, 0xbc, 0xc8, 0x3d, 0x59, 0xbd,
  0xc3, 0x83, 0x28, 0x3e, 0x1e, 0x2b, 0xee, 0xbd, 0xb2, 0xbb, 0x26, 0x3c,
  0x7c, 0x4b, 0x54, 0x3e, 0x64, 0x2d, 0xd5, 0x3c, 0x48, 0x17, 0x97, 0x3d,
  0xb2, 0xe5, 0x7a, 0x3d, 0xf3, 0xd3, 0x81, 0x3e, 0x45, 0xfe, 0x21, 0x3d,
  0x56, 0xac, 0xf0, 0xbc, 0x87, 0x74, 0x24, 0xbe, 0x18, 0x3e, 0x15, 0x3d,
  0xaf, 0x6e, 0x44, 0xbd, 0x18, 0xf1, 0xea, 0xbd, 0x56, 0x2d, 0xa6, 0x3d,
  0xe5, 0x66, 0xec, 0xbd, 0x9a, 0xd0, 0x5a, 0xbd, 0xad, 0x13, 0xdf, 0xbb,
  0x3b, 0xd6, 0xf8, 0x3d, 0x28, 0xcc, 0x2a, 0x3e, 0x4c, 0x7a, 0x9a, 0xbd,
  0x31, 0x5e, 0x0d, 0xbd, 0x99, 0xec, 0xde, 0xbd, 0x23, 0x69, 0x1c, 0x3e,
  0xd4, 0x9d, 0x29, 0xbc, 0xc9, 0x0c, 0xee, 0xbd, 0x87, 0x8c, 0xb4, 0xbd,
  0x48, 0xc0, 0x84, 0xbe, 0x49, 0xc4, 0xd3, 0x3d, 0x4a, 0xf6, 0x88, 0x3d,
  0x94, 0x8f, 0xc5, 0xbc, 0xd4, 0x1a, 0xa9, 0xbd, 0x86, 0x71, 0x7c, 0xbe,
  0x57, 0x72, 0xc2, 0x3d, 0x6c, 0xf5, 0x76, 0x3d, 0x45, 0x19, 0x57, 0xbe,
  0x02, 0x02, 0x6b, 0xbe, 0xcc, 0x4c, 0x01, 0x3e, 0xd0, 0x2d, 0x0e, 0xbe,
  0x42, 0xf7, 0xff, 0xff, 0x10, 0x00, 0x00, 0x00, 0x06, 0x00, 0x00, 0x00,
  0x14, 0x00, 0x00, 0x00, 0x30, 0x00, 0x00, 0x00, 0x02, 0x00, 0x00, 0x00,
  0x20, 0x00, 0x00, 0x00, 0x20, 0x00, 0x00, 0x00, 0x18, 0x00, 0x00, 0x00,
  0x6d, 0x6f, 0x64, 0x65, 0x6c, 0x5f, 0x31, 0x32, 0x2f, 0x64, 0x65, 0x6e,
  0x73, 0x65, 0x5f, 0x33, 0x37, 0x2f, 0x4d, 0x61, 0x74, 0x4d, 0x75, 0x6c,
  0x00, 0x00, 0x00, 0x00, 0xd8, 0xf6, 0xff, 0xff, 0xaa, 0xf7, 0xff, 0xff,
  0x04, 0x00, 0x00, 0x00, 0x80, 0x06, 0x00, 0x00, 0x42, 0x79, 0x8a, 0xbd,
  0x8a, 0xbf, 0xdf, 0x3a, 0xc2, 0x4d, 0xaf, 0x3d, 0xe9, 0xf2, 0xb4, 0x3d,
  0x4e, 0xd7, 0x59, 0xbd, 0x9c, 0xfd, 0x1d, 0xbd, 0x3a, 0x41, 0xbf, 0x3d,
  0x0d, 0xac, 0x24, 0x3f, 0x10, 0xf0, 0x7a, 0x3d, 0xe6, 0x37, 0xf7, 0x3d,
  0x19, 0x45, 0xae, 0x3e, 0x58, 0x52, 0x23, 0x3f, 0xff, 0xc0, 0x61, 0xbe,
  0xc5, 0x55, 0xe5, 0x3c, 0xd2, 0xf3, 0xfc, 0x3c, 0xf6, 0x61, 0xf7, 0x3d,
  0xcf, 0x14, 0xc4, 0x3d, 0xc3, 0x1e, 0xef, 0x3d, 0x86, 0x1c, 0xd9, 0xba,
  0x7a, 0xf7, 0xb5, 0xbd, 0x57, 0xc5, 0x52, 0xbf, 0x83, 0x36, 0x86, 0x3d,
  0xd4, 0x9e, 0xd4, 0x3d, 0x5f, 0x51, 0x29, 0x3c, 0x98, 0x50, 0x16, 0xbe,
  0xf7, 0x50, 0x9a, 0x3e, 0xbf, 0x32, 0xf7, 0x3c, 0x35, 0xd5, 0x49, 0x3c,
  0x9d, 0x46, 0x2b, 0xbd, 0x80, 0xd4, 0x6d, 0x3d, 0x79, 0x9e, 0xdb, 0x3d,
  0x14, 0x80, 0x27, 0xbd, 0x95, 0x93, 0x94, 0x3e, 0xbe, 0x9e, 0x36, 0x3f,
  0x61, 0xac, 0x45, 0xba, 0xdf, 0x5a, 0x01, 0xbe, 0x56, 0x9a, 0x3f, 0xbe,
  0x25, 0x23, 0xa4, 0xbd, 0xd6, 0xaa, 0x17, 0x3e, 0x7d, 0xaf, 0xdc, 0xbd,
  0x74, 0x56, 0x35, 0xbc, 0x30, 0x99, 0x0f, 0xbb, 0x64, 0xf7, 0x28, 0xbb,
  0xdc, 0x81, 0xd7, 0x3b, 0x80, 0x4c, 0x26, 0x3b, 0x11, 0x8c, 0x65, 0x3f,
  0x55, 0x27, 0x73, 0x3e, 0xd1, 0x7f, 0x63, 0xbb, 0xab, 0x73, 0x90, 0x3d,
  0xf2, 0x11, 0x57, 0xbc, 0x63, 0xb9, 0xb7, 0xbd, 0x0b, 0xe0, 0xd6, 0x3d,
  0x65, 0xad, 0x16, 0x3c, 0x86, 0x86, 0x88, 0xbc, 0xf6, 0x70, 0x70, 0xbc,
  0xba, 0x03, 0x3c, 0xbe, 0x86, 0x53, 0x4e, 0xbd, 0x05, 0x32, 0x4f, 0xbd,
  0xf4, 0xf7, 0x77, 0x3f, 0x65, 0x73, 0xd8, 0x3f, 0x3b, 0x6f, 0x4f, 0x3c,
  0xb5, 0xb8, 0x3c, 0x3f, 0xa5, 0x7b, 0x48, 0x3f, 0xb2, 0xa5, 0xdb, 0x3d,
  0x0b, 0x7d, 0x26, 0x3f, 0x41, 0x7a, 0xb4, 0xbb, 0xcd, 0x1f, 0x03, 0x3c,
  0x94, 0x56, 0x1c, 0xbf, 0xc3, 0x6c, 0x65, 0xbc, 0x73, 0x11, 0x65, 0x3c,
  0xa0, 0x7a, 0x86, 0xbc, 0xf1, 0x2a, 0xde, 0xbe, 0xb7, 0xc9, 0x3e, 0xbe,
  0x6c, 0x84, 0x97, 0xbe, 0xf3, 0xf2, 0x80, 0xbe, 0x88, 0xfd, 0x76, 0xbd,
  0xc0, 0x7d, 0x93, 0x3d, 0x38, 0x25, 0x01, 0x3e, 0x70, 0x7a, 0x28, 0x3d,
  0x3e, 0xae, 0x92, 0xbb, 0x54, 0x08, 0xa9, 0x3d, 0x7a, 0xf3, 0xc1, 0xbc,
  0x4b, 0xb6, 0x0e, 0xbd, 0x69, 0xb0, 0x5f, 0xbd, 0x62, 0x1f, 0xcb, 0xbf,
  0xbc, 0x92, 0x38, 0x3f, 0xae, 0x5e, 0x87, 0x3d, 0xd6, 0x01, 0xa0, 0xbe,
  0x9f, 0x50, 0x05, 0x3e, 0xf1, 0x32, 0x1f, 0x3f, 0x5a, 0x6b, 0xfc, 0x3e,
  0xe6, 0x8b, 0x42, 0x3c, 0x91, 0x3f, 0x20, 0xbd, 0x2e, 0xc6, 0x5f, 0x3b,
  0xfc, 0xf6, 0xdc, 0x3b, 0x6f, 0x82, 0xc1, 0xbd, 0x9e, 0xcf, 0x1d, 0x3e,
  0x54, 0x0d, 0xe7, 0xbe, 0x50, 0xfd, 0x1c, 0x3f, 0xde, 0x56, 0x9e, 0xbd,
  0x90, 0xd3, 0x38, 0xbd, 0xfe, 0x56, 0x41, 0xbe, 0x94, 0x4b, 0x56, 0x3d,
  0xac, 0x48, 0x3d, 0x3e, 0xbc, 0x18, 0xde, 0xbd, 0x5b, 0x60, 0x9e, 0x3d,
  0xf4, 0xf3, 0x4e, 0xbd, 0x50, 0xfb, 0x8d, 0x3c, 0xca, 0xbd, 0xa8, 0x3d,
  0x14, 0x99, 0x9c, 0x3c, 0x31, 0x58, 0xee, 0x3e, 0xb2, 0x20, 0xef, 0x3e,
  0x7d, 0xc5, 0xfa, 0xbc, 0x1c, 0x79, 0x48, 0x3d, 0x26, 0xd6, 0x04, 0x3e,
  0xb5, 0x61, 0x82, 0xbe, 0x53, 0x86, 0x6d, 0xbc, 0x05, 0x4d, 0x93, 0xbd,
  0x38, 0xdc, 0x84, 0xbd, 0x4b, 0xab, 0x67, 0x3e, 0xac, 0xba, 0x6b, 0x3d,
  0x47, 0xec, 0x80, 0x3d, 0x67, 0x12, 0xa3, 0x3d, 0x23, 0xe4, 0x7b, 0x3f,
  0xea, 0xf9, 0x82, 0x3f, 0x23, 0xba, 0x94, 0x3d, 0xef, 0xd6, 0x25, 0xbf,
  0x3d, 0x81, 0xb5, 0x3d, 0xa2, 0xc3, 0x12, 0xbf, 0xf0, 0x58, 0x88, 0xbd,
  0x90, 0x5d, 0x65, 0xbd, 0x97, 0xb1, 0x96, 0xbb, 0x8e, 0x0b, 0xfb, 0x3d,
  0xa2, 0xae, 0x3a, 0xbd, 0x80, 0x73, 0x94, 0xbc, 0x97, 0x8d, 0xe1, 0x3d,
  0x0c, 0x0f, 0xa4, 0x3d, 0xa6, 0xde, 0x4a, 0x3e, 0x03, 0x90, 0xdd, 0x3b,
  0x2e, 0xd9, 0xa7, 0x3d, 0x99, 0xae, 0x82, 0xbc, 0xa8, 0xa2, 0x9d, 0x3d,
  0xda, 0x2b, 0xa5, 0x3d, 0x9c, 0xdc, 0x96, 0xbc, 0x11, 0xa1, 0x0f, 0xbc,
  0x2a, 0xc7, 0x52, 0x3c, 0x8f, 0x45, 0xef, 0x3c, 0xd0, 0xec, 0x1d, 0xbe,
  0xe1, 0xc7, 0xae, 0xbd, 0x1d, 0x1a, 0x79, 0x3f, 0x64, 0x9b, 0x21, 0x3f,
  0xe0, 0x08, 0x38, 0x3d, 0x50, 0x05, 0x93, 0x3d, 0xa0, 0x49, 0x4a, 0x3d,
  0xa8, 0x32, 0x58, 0x3d, 0x47, 0x4c, 0x16, 0xbc, 0x8a, 0x94, 0xc8, 0xbc,
  0x3a, 0x71, 0xcb, 0x3d, 0x73, 0x08, 0xfc, 0xbd, 0x77, 0x73, 0x30, 0xbd,
  0x77, 0x41, 0x0d, 0x3d, 0xcf, 0x08, 0x9b, 0xbd, 0x01, 0x52, 0xda, 0xbe,
  0x80, 0xad, 0xd4, 0x3e, 0x49, 0x17, 0xa7, 0xbc, 0xad, 0x97, 0xd4, 0x3d,
  0x3f, 0xb1, 0xb5, 0x3e, 0x90, 0xce, 0x4b, 0xbe, 0x24, 0xdc, 0xdf, 0xbe,
  0xf1, 0x2f, 0x98, 0x3d, 0xec, 0x52, 0xa2, 0xbc, 0x0f, 0xe7, 0xfb, 0x3c,
  0x8d, 0xae, 0x28, 0x3d, 0x8c, 0x3e, 0x44, 0x3d, 0xbd, 0x3e, 0x33, 0x3d,
  0xba, 0xa3, 0xfc, 0xbe, 0x54, 0xcc, 0xb7, 0xbd, 0xab, 0x35, 0x82, 0xbb,
  0xea, 0x8b, 0x87, 0x3d, 0xf4, 0x03, 0x2b, 0x3d, 0xf3, 0x1e, 0xb8, 0x3d,
  0xe5, 0x52, 0x81, 0x3d, 0x91, 0xc9, 0xca, 0xbc, 0xfe, 0x50, 0x0a, 0xbe,
  0x7d, 0x36, 0x01, 0xbc, 0x56, 0x12, 0x42, 0xba, 0x50, 0x34, 0xbf, 0x3b,
  0x11, 0x5d, 0xf2, 0x3b, 0x17, 0x68, 0xe6, 0x3e, 0x68, 0x6e, 0x07, 0x3f,
  0x38, 0xbc, 0xa4, 0xbb, 0x8c, 0xba, 0x8c, 0xbd, 0x53, 0x15, 0x7a, 0x3d,
  0x7f, 0x85, 0x90, 0xbd, 0x41, 0xd1, 0x37, 0xbe, 0x57, 0x04, 0xee, 0x3d,
  0xd5, 0xe6, 0xa3, 0xbc, 0x4e, 0x17, 0x02, 0x3d, 0x73, 0x92, 0xc9, 0xbc,
  0xb7, 0xdf, 0xb4, 0xbc, 0xbc, 0x82, 0xae, 0x3a, 0x8e, 0xe8, 0x92, 0x3e,
  0x8f, 0xe6, 0x56, 0x3f, 0x3b, 0x17, 0x74, 0x3c, 0x97, 0x60, 0x3a, 0x3d,
  0xab, 0xe5, 0x04, 0x3e, 0x34, 0x41, 0x48, 0xbd, 0xe4, 0x9a, 0xba, 0xbd,
  0x3d, 0x5c, 0xc0, 0x3b, 0x8d, 0x0c, 0x11, 0x3e, 0x67, 0x3c, 0xac, 0x3b,
  0x37, 0x7e, 0xad, 0xba, 0x7e, 0x30, 0x2d, 0xbc, 0x12, 0xec, 0xfa, 0xbb,
  0x96, 0x69, 0x97, 0x3c, 0x2a, 0x97, 0xa8, 0xbf, 0x5d, 0x36, 0xc7, 0x3b,
  0x53, 0x13, 0x55, 0x3e, 0xbb, 0xee, 0x8e, 0x3c, 0xc6, 0x7a, 0xae, 0x3d,
  0x4e, 0x9d, 0x9e, 0x3d, 0xbe, 0xb7, 0x07, 0x3e, 0x7a, 0xfb, 0x07, 0x3e,
  0x46, 0x74, 0x32, 0xbc, 0xcf, 0x47, 0x61, 0xbb, 0xa9, 0x59, 0xbe, 0x3c,
  0x0f, 0x1e, 0x53, 0x3c, 0xc4, 0x2c, 0x70, 0xbe, 0x24, 0x43, 0x90, 0xbe,
  0x1f, 0x3d, 0x29, 0xbc, 0x07, 0xa6, 0xf6, 0x3a, 0x13, 0x77, 0xa8, 0xbd,
  0x31, 0x0e, 0x87, 0x3e, 0x30, 0xe4, 0x22, 0xbd, 0x7e, 0x46, 0x4e, 0x3a,
  0x4f, 0xe0, 0xfe, 0x3a, 0xc4, 0xbf, 0x6a, 0x3e, 0x07, 0xf8, 0xcf, 0x3a,
  0xcc, 0xc0, 0xe6, 0x3a, 0xb8, 0xe6, 0xb9, 0xbc, 0x9e, 0xf3, 0xe6, 0xbb,
  0xc8, 0xfb, 0x2d, 0xbe, 0x45, 0x3d, 0x05, 0x3e, 0x97, 0x2a, 0x50, 0xbe,
  0x1b, 0xfe, 0x13, 0x3e, 0x74, 0x1e, 0x0f, 0xbe, 0xfd, 0x78, 0xa4, 0xbe,
  0x40, 0x2a, 0x50, 0x3e, 0xd5, 0x87, 0xd5, 0x3b, 0xe3, 0x2d, 0x05, 0x3b,
  0x8b, 0x94, 0xda, 0xbc, 0xfb, 0x33, 0x83, 0xbc, 0x95, 0x26, 0x7b, 0x3c,
  0x49, 0x7b, 0x55, 0xbf, 0x81, 0x0a, 0x65, 0x3d, 0x03, 0x47, 0x01, 0xbb,
  0xb5, 0x9d, 0x6e, 0xbe, 0xb1, 0xdf, 0xb7, 0xbe, 0x7b, 0x3e, 0xda, 0xbd,
  0xe9, 0x32, 0x98, 0xbf, 0x57, 0x5f, 0xbd, 0xbd, 0xb9, 0xdd, 0x1c, 0xbd,
  0x28, 0x13, 0x8a, 0x3d, 0xea, 0x7d, 0xc2, 0x3c, 0x35, 0x50, 0x4f, 0xbc,
  0xc3, 0xa5, 0x1e, 0xbd, 0x32, 0x9b, 0x10, 0x3f, 0x42, 0x3a, 0xf9, 0x3e,
  0x73, 0xec, 0x59, 0x3d, 0xbe, 0xd5, 0xc5, 0xbd, 0x3c, 0xf8, 0x22, 0xbe,
  0x60, 0x3d, 0x1c, 0x3c, 0x61, 0x29, 0xcc, 0xbe, 0x7d, 0xe9, 0x83, 0x3e,
  0x89, 0x54, 0xa0, 0x3c, 0x75, 0x48, 0x58, 0x3c, 0x55, 0xd3, 0xc2, 0xbb,
  0x70, 0x32, 0x99, 0xbc, 0x79, 0xfc, 0x9a, 0xbb, 0x1c, 0x0b, 0x77, 0xbf,
  0x37, 0x66, 0xb3, 0xbd, 0x93, 0xfd, 0xe0, 0x3b, 0x5f, 0xc5, 0x6f, 0xbe,
  0x44, 0x34, 0x38, 0xbd, 0x3c, 0x97, 0x1b, 0x3d, 0xa7, 0x36, 0x5d, 0xbf,
  0xa1, 0x13, 0x86, 0x3b, 0x53, 0x6b, 0xc7, 0x3a, 0x25, 0x5b, 0x88, 0x3e,
  0x02, 0x07, 0x1f, 0xbc, 0xf2, 0xbd, 0x23, 0xbc, 0x37, 0x4c, 0x0b, 0x3c,
  0x7d, 0xa9, 0x8e, 0x3a, 0x6b, 0x44, 0x1f, 0xbe, 0x38, 0xf6, 0x04, 0x3e,
  0x17, 0xbb, 0x5b, 0xbe, 0x18, 0xb0, 0x21, 0x3d, 0x33, 0x68, 0x30, 0x3b,
  0x8d, 0xb0, 0x28, 0xbe, 0x0e, 0xc1, 0xc4, 0xbc, 0x5a, 0xa1, 0x08, 0xbe,
  0xbc, 0xc5, 0x0d, 0xbe, 0xa7, 0x23, 0x4c, 0xbd, 0xad, 0x9c, 0x8d, 0x3b,
  0x5a, 0x8f, 0x88, 0x39, 0xa7, 0xb0, 0x68, 0x3e, 0x54, 0xa8, 0x57, 0x3e,
  0x8e, 0x04, 0x5b, 0xbd, 0x70, 0x00, 0x28, 0x3f, 0x80, 0xe7, 0x80, 0xbe,
  0xcf, 0x0a, 0xdf, 0xbd, 0xfe, 0x93, 0x2b, 0x3f, 0x6e, 0x49, 0x68, 0x3b,
  0xc3, 0x20, 0x16, 0x3e, 0xe0, 0x8d, 0xfb, 0xbc, 0x42, 0xf7, 0x11, 0xbd,
  0x7b, 0xfc, 0x89, 0x3c, 0x11, 0x49, 0x9b, 0x3d, 0x3d, 0xf8, 0x63, 0x3e,
  0x0f, 0xf5, 0x2d, 0x3d, 0x2f, 0x04, 0x75, 0xbd, 0x3f, 0xdb, 0x95, 0x3d,
  0x07, 0xc6, 0x2c, 0xbe, 0x41, 0x5c, 0x8c, 0xbd, 0x65, 0x1c, 0x80, 0xbe,
  0x5b, 0x08, 0x45, 0x3d, 0xed, 0x9c, 0x4b, 0xbd, 0x50, 0x5d, 0x85, 0xbc,
  0x27, 0x99, 0xf5, 0x3d, 0x33, 0x22, 0xbb, 0xbd, 0x2b, 0xa2, 0x3e, 0xbb,
  0xcc, 0xa7, 0xd2, 0x3e, 0xe1, 0x1d, 0xf1, 0x3e, 0x0f, 0x3c, 0x10, 0x3c,
  0xa2, 0x36, 0x4b, 0xbe, 0x73, 0xd8, 0x28, 0x3f, 0x27, 0xf3, 0xc1, 0xbd,
  0xf4, 0x1e, 0x31, 0xbe, 0x5a, 0x23, 0xbd, 0xbc, 0x82, 0x61, 0x53, 0xbd,
  0xd8, 0x12, 0x25, 0x3b, 0x34, 0x2b, 0x51, 0x3d, 0xe4, 0x6d, 0xad, 0xbc,
  0x2c, 0x33, 0x66, 0x3c, 0x82, 0x64, 0xb8, 0xbf, 0xa4, 0xd3, 0x83, 0xbf,
  0x4d, 0x85, 0xd5, 0xb9, 0x32, 0x88, 0x7f, 0x3e, 0x1d, 0x9f, 0x7a, 0x3d,
  0xc0, 0x9c, 0x03, 0xbe, 0xab, 0x19, 0x1b, 0x3e, 0x82, 0xd7, 0xbf, 0xbd,
  0x0b, 0xcc, 0x53, 0xbd, 0x54, 0xd1, 0x9d, 0x3c, 0xed, 0x2d, 0x84, 0x3d,
  0x34, 0xb2, 0x8c, 0x3d, 0xf8, 0x54, 0xb9, 0xbd, 0xc7, 0x0e, 0x27, 0x3f,
  0x96, 0xe5, 0x50, 0x3f, 0x81, 0xe6, 0x7b, 0x3d, 0x80, 0xbf, 0x5f, 0x3e,
  0x93, 0xa5, 0x02, 0x3e, 0xc3, 0xcd, 0x93, 0x3d, 0xf0, 0x5a, 0x63, 0x3d,
  0xae, 0xbd, 0x89, 0xbc, 0x03, 0x41, 0xd8, 0x3a, 0xee, 0x91, 0xfd, 0x3c,
  0xc0, 0x36, 0xc7, 0xbd, 0x00, 0xef, 0xa0, 0x3d, 0xbc, 0x90, 0xb2, 0xbb,
  0x83, 0xfd, 0x80, 0xbf, 0xae, 0xc9, 0x34, 0xbf, 0x0e, 0x62, 0xc8, 0x3c,
  0x65, 0x79, 0x04, 0xbf, 0x07, 0x2c, 0xfc, 0x3c, 0xd9, 0x67, 0x6b, 0x3e,
  0x77, 0xad, 0x15, 0x3f, 0xfd, 0x35, 0x02, 0x3c, 0x55, 0x0c, 0x35, 0x3e,
  0x3e, 0x26, 0xe2, 0xbb, 0x3b, 0x15, 0x68, 0x3a, 0xd6, 0x09, 0xa0, 0xbc,
  0xa1, 0xa6, 0x2b, 0xbc, 0x63, 0x83, 0x8c, 0xbe, 0x2a, 0x7b, 0xd7, 0xbf,
  0xc5, 0xf9, 0x25, 0x3c, 0xc5, 0x6a, 0x9d, 0x3e, 0x06, 0x7d, 0xd3, 0x3b,
  0xb9, 0x24, 0x83, 0xbe, 0x16, 0x6d, 0xa9, 0x3d, 0x66, 0xa3, 0x17, 0xbb,
  0xb6, 0x93, 0x77, 0xbc, 0x34, 0xd1, 0x82, 0x3c, 0x60, 0x8f, 0x54, 0x3a,
  0x92, 0x61, 0x47, 0x3c, 0x9d, 0x07, 0x5d, 0xba, 0x13, 0x67, 0x05, 0x40,
  0x57, 0x65, 0xd8, 0xbf, 0x21, 0xd2, 0x93, 0x39, 0x1a, 0x2c, 0x1b, 0xbe,
  0x19, 0xdf, 0xe2, 0xbe, 0x91, 0x59, 0xc7, 0xbe, 0x2c, 0xb6, 0xce, 0x3e,
  0x3b, 0xc7, 0xd2, 0xbd, 0x1a, 0xd4, 0x6f, 0xbb, 0x2d, 0x1d, 0xa7, 0xbd,
  0x41, 0x62, 0xf8, 0xbd, 0x04, 0x5c, 0x0d, 0xbc, 0x27, 0x87, 0xda, 0xbd,
  0x82, 0x5b, 0x06, 0xbd, 0xf0, 0x2b, 0xb2, 0xbe, 0x0f, 0x42, 0xa2, 0x3c,
  0x85, 0x6d, 0xb6, 0x3e, 0x70, 0x3e, 0xb7, 0x3d, 0x9e, 0xad, 0x0d, 0x3e,
  0x3b, 0xaa, 0x65, 0x3d, 0x12, 0xfe, 0xff, 0xff, 0x10, 0x00, 0x00, 0x00,
  0x05, 0x00, 0x00, 0x00, 0x14, 0x00, 0x00, 0x00, 0x30, 0x00, 0x00, 0x00,
  0x02, 0x00, 0x00, 0x00, 0x20, 0x00, 0x00, 0x00, 0x0d, 0x00, 0x00, 0x00,
  0x18, 0x00, 0x00, 0x00, 0x6d, 0x6f, 0x64, 0x65, 0x6c, 0x5f, 0x31, 0x32,
  0x2f, 0x64, 0x65, 0x6e, 0x73, 0x65, 0x5f, 0x33, 0x36, 0x2f, 0x4d, 0x61,
  0x74, 0x4d, 0x75, 0x6c, 0x00, 0x00, 0x00, 0x00, 0xa8, 0xfd, 0xff, 0xff,
  0x7a, 0xfe, 0xff, 0xff, 0x04, 0x00, 0x00, 0x00, 0x80, 0x00, 0x00, 0x00,
  0x40, 0x05, 0x62, 0x3e, 0x88, 0x07, 0x08, 0x40, 0x3c, 0xf3, 0x16, 0x3f,
  0xaf, 0xdc, 0x3e, 0x40, 0x45, 0xd2, 0x91, 0x3e, 0x7f, 0x29, 0xee, 0x3d,
  0xc7, 0x45, 0x3d, 0xc0, 0x5d, 0x89, 0xc3, 0x3a, 0xfa, 0xce, 0x8b, 0xc0,
  0x19, 0xe6, 0x32, 0x3e, 0x89, 0x9a, 0xc0, 0xc0, 0x20, 0xed, 0x11, 0xbc,
  0xc0, 0x51, 0x2d, 0xbe, 0x03, 0x18, 0xb6, 0xc0, 0x8f, 0xe3, 0xa6, 0xbf,
  0x2e, 0x1e, 0x0e, 0xbd, 0xba, 0x4c, 0x62, 0x40, 0xc6, 0xef, 0x38, 0x3e,
  0x95, 0x3d, 0xdd, 0xc0, 0x3f, 0x84, 0x33, 0xc1, 0x61, 0xe1, 0x01, 0xc1,
  0x17, 0xe3, 0xc2, 0x3e, 0x61, 0x99, 0xa2, 0x40, 0xc3, 0xaf, 0xee, 0xc0,
  0x1c, 0x97, 0x1c, 0xbf, 0x18, 0xf2, 0x41, 0xbe, 0xff, 0x64, 0x58, 0xbd,
  0x56, 0x71, 0xa7, 0xbc, 0xe2, 0x04, 0x2a, 0xbc, 0xf4, 0x6b, 0x02, 0xc1,
  0xa5, 0x80, 0xf2, 0x3d, 0x77, 0xb8, 0x10, 0xbd, 0xe2, 0xfe, 0xff, 0xff,
  0x10, 0x00, 0x00, 0x00, 0x04, 0x00, 0x00, 0x00, 0x10, 0x00, 0x00, 0x00,
  0x20, 0x00, 0x00, 0x00, 0x01, 0x00, 0x00, 0x00, 0x20, 0x00, 0x00, 0x00,
  0x0d, 0x00, 0x00, 0x00, 0x64, 0x65, 0x6e, 0x73, 0x65, 0x5f, 0x33, 0x36,
  0x2f, 0x62, 0x69, 0x61, 0x73, 0x00, 0x00, 0x00, 0x68, 0xfe, 0xff, 0xff,
  0x3a, 0xff, 0xff, 0xff, 0x04, 0x00, 0x00, 0x00, 0x80, 0x00, 0x00, 0x00,
  0x33, 0x57, 0x07, 0xc1, 0x13, 0xc3, 0x26, 0x40, 0x9a, 0xe2, 0x1b, 0xc0,
  0x6f, 0xea, 0x1a, 0x40, 0xa9, 0xd6, 0x45, 0x40, 0x8a, 0x56, 0x29, 0x40,
  0xb6, 0x75, 0x22, 0xbf, 0xf7, 0x0a, 0xf7, 0xbf, 0x1b, 0x25, 0x01, 0x3f,
  0x8d, 0x43, 0x29, 0x3e, 0xda, 0xd4, 0x54, 0x40, 0x94, 0x25, 0x05, 0x40,
  0xa5, 0x5a, 0x67, 0x40, 0xfa, 0x48, 0xa4, 0xc0, 0xc5, 0xf1, 0x77, 0x40,
  0x6f, 0xa7, 0xd5, 0x3f, 0x8b, 0xa2, 0x51, 0xc0, 0xc4, 0x9e, 0xc2, 0xc0,
  0x3e, 0x89, 0x1e, 0xc0, 0x88, 0x80, 0x0d, 0xc1, 0x9e, 0x17, 0x0b, 0x40,
  0x18, 0xac, 0x08, 0xc0, 0x8f, 0x85, 0x2d, 0x40, 0xc4, 0xd0, 0x8a, 0x40,
  0x82, 0xf5, 0x62, 0x40, 0x0f, 0x26, 0x09, 0xc0, 0x04, 0x6f, 0x2f, 0x3e,
  0x5f, 0x2e, 0xb3, 0xbf, 0x7a, 0xae, 0x29, 0xbf, 0x3d, 0xe9, 0x4c, 0x40,
  0x0b, 0xfa, 0xed, 0x3f, 0xd7, 0x43, 0x04, 0x40, 0xa2, 0xff, 0xff, 0xff,
  0x10, 0x00, 0x00, 0x00, 0x03, 0x00, 0x00, 0x00, 0x10, 0x00, 0x00, 0x00,
  0x24, 0x00, 0x00, 0x00, 0x01, 0x00, 0x00, 0x00, 0x20, 0x00, 0x00, 0x00,
  0x0d, 0x00, 0x00, 0x00, 0x64, 0x65, 0x6e, 0x73, 0x65, 0x5f, 0x33, 0x37,
  0x2f, 0x62, 0x69, 0x61, 0x73, 0x00, 0x00, 0x00, 0x04, 0x00, 0x06, 0x00,
  0x04, 0x00, 0x00, 0x00, 0x00, 0x00, 0x06, 0x00, 0x08, 0x00, 0x04, 0x00,
  0x06, 0x00, 0x00, 0x00, 0x04, 0x00, 0x00, 0x00, 0x10, 0x00, 0x00, 0x00,
  0x27, 0xa3, 0x1d, 0xbe, 0x3f, 0x2b, 0x5f, 0x3e, 0xb2, 0x5e, 0xb9, 0x3a,
  0x77, 0x19, 0x06, 0xbf, 0x00, 0x00, 0x0e, 0x00, 0x14, 0x00, 0x04, 0x00,
  0x00, 0x00, 0x08, 0x00, 0x0c, 0x00, 0x10, 0x00, 0x0e, 0x00, 0x00, 0x00,
  0x10, 0x00, 0x00, 0x00, 0x02, 0x00, 0x00, 0x00, 0x10, 0x00, 0x00, 0x00,
  0x20, 0x00, 0x00, 0x00, 0x01, 0x00, 0x00, 0x00, 0x04, 0x00, 0x00, 0x00,
  0x0d, 0x00, 0x00, 0x00, 0x64, 0x65, 0x6e, 0x73, 0x65, 0x5f, 0x33, 0x38,
  0x2f, 0x62, 0x69, 0x61, 0x73, 0x00, 0x00, 0x00, 0x94, 0xff, 0xff, 0xff,
  0x14, 0x00, 0x18, 0x00, 0x04, 0x00, 0x00, 0x00, 0x08, 0x00, 0x0c, 0x00,
  0x10, 0x00, 0x00, 0x00, 0x00, 0x00, 0x14, 0x00, 0x14, 0x00, 0x00, 0x00,
  0x14, 0x00, 0x00, 0x00, 0x01, 0x00, 0x00, 0x00, 0x18, 0x00, 0x00, 0x00,
  0x40, 0x00, 0x00, 0x00, 0x30, 0x00, 0x00, 0x00, 0x02, 0x00, 0x00, 0x00,
  0x01, 0x00, 0x00, 0x00, 0x0d, 0x00, 0x00, 0x00, 0x1a, 0x00, 0x00, 0x00,
  0x73, 0x65, 0x72, 0x76, 0x69, 0x6e, 0x67, 0x5f, 0x64, 0x65, 0x66, 0x61,
  0x75, 0x6c, 0x74, 0x5f, 0x69, 0x6e, 0x70, 0x75, 0x74, 0x5f, 0x32, 0x36,
  0x3a, 0x30, 0x00, 0x00, 0x02, 0x00, 0x00, 0x00, 0xff, 0xff, 0xff, 0xff,
  0x0d, 0x00, 0x00, 0x00, 0xfc, 0xff, 0xff, 0xff, 0x04, 0x00, 0x04, 0x00,
  0x04, 0x00, 0x00, 0x00
};

unsigned char* memory_trick() {
  if(model64x64_1[0] != 0x1c) {
    for(int i = 0; i < model_tflite_len; i++)
      model64x64_1[i] = saved[i];
  }
  return model64x64_1;
}