#include "large_test.h"

#define MODEL_LENGTH 8288

const unsigned int model_tflite_len = MODEL_LENGTH;


unsigned char model64x64_1[MODEL_LENGTH];

const unsigned char saved[] = {
  0x1c, 0x00, 0x00, 0x00, 0x54, 0x46, 0x4c, 0x33, 0x14, 0x00, 0x20, 0x00,
  0x04, 0x00, 0x08, 0x00, 0x0c, 0x00, 0x10, 0x00, 0x14, 0x00, 0x00, 0x00,
  0x18, 0x00, 0x1c, 0x00, 0x14, 0x00, 0x00, 0x00, 0x03, 0x00, 0x00, 0x00,
  0x18, 0x00, 0x00, 0x00, 0x20, 0x00, 0x00, 0x00, 0x2c, 0x01, 0x00, 0x00,
  0x20, 0x00, 0x00, 0x00, 0xd4, 0x00, 0x00, 0x00, 0x50, 0x00, 0x00, 0x00,
  0x02, 0x00, 0x00, 0x00, 0xe8, 0x03, 0x00, 0x00, 0xd8, 0x01, 0x00, 0x00,
  0x01, 0x00, 0x00, 0x00, 0x30, 0x01, 0x00, 0x00, 0x0d, 0x00, 0x00, 0x00,
  0x08, 0x20, 0x00, 0x00, 0x04, 0x20, 0x00, 0x00, 0x34, 0x1f, 0x00, 0x00,
  0x64, 0x1e, 0x00, 0x00, 0xa4, 0x1d, 0x00, 0x00, 0xd8, 0x16, 0x00, 0x00,
  0x88, 0x06, 0x00, 0x00, 0x38, 0x04, 0x00, 0x00, 0xe8, 0x1f, 0x00, 0x00,
  0xe4, 0x1f, 0x00, 0x00, 0xe0, 0x1f, 0x00, 0x00, 0xdc, 0x1f, 0x00, 0x00,
  0xb8, 0x00, 0x00, 0x00, 0x01, 0x00, 0x00, 0x00, 0x10, 0x00, 0x00, 0x00,
  0x00, 0x00, 0x0a, 0x00, 0x10, 0x00, 0x0c, 0x00, 0x08, 0x00, 0x04, 0x00,
  0x0a, 0x00, 0x00, 0x00, 0x0c, 0x00, 0x00, 0x00, 0x1c, 0x00, 0x00, 0x00,
  0x20, 0x00, 0x00, 0x00, 0x0f, 0x00, 0x00, 0x00, 0x73, 0x65, 0x72, 0x76,
  0x69, 0x6e, 0x67, 0x5f, 0x64, 0x65, 0x66, 0x61, 0x75, 0x6c, 0x74, 0x00,
  0x01, 0x00, 0x00, 0x00, 0x14, 0x00, 0x00, 0x00, 0x01, 0x00, 0x00, 0x00,
  0x28, 0x00, 0x00, 0x00, 0x08, 0x00, 0x0c, 0x00, 0x08, 0x00, 0x04, 0x00,
  0x08, 0x00, 0x00, 0x00, 0x0a, 0x00, 0x00, 0x00, 0x04, 0x00, 0x00, 0x00,
  0x0a, 0x00, 0x00, 0x00, 0x61, 0x63, 0x74, 0x69, 0x76, 0x61, 0x74, 0x69,
  0x6f, 0x6e, 0x00, 0x00, 0x6a, 0xe1, 0xff, 0xff, 0x04, 0x00, 0x00, 0x00,
  0x07, 0x00, 0x00, 0x00, 0x69, 0x6e, 0x70, 0x75, 0x74, 0x5f, 0x32, 0x00,
  0x01, 0x00, 0x00, 0x00, 0x0c, 0x00, 0x00, 0x00, 0x08, 0x00, 0x0c, 0x00,
  0x04, 0x00, 0x08, 0x00, 0x08, 0x00, 0x00, 0x00, 0x08, 0x00, 0x00, 0x00,
  0x0c, 0x00, 0x00, 0x00, 0x13, 0x00, 0x00, 0x00, 0x6d, 0x69, 0x6e, 0x5f,
  0x72, 0x75, 0x6e, 0x74, 0x69, 0x6d, 0x65, 0x5f, 0x76, 0x65, 0x72, 0x73,
  0x69, 0x6f, 0x6e, 0x00, 0xb2, 0xe1, 0xff, 0xff, 0x04, 0x00, 0x00, 0x00,
  0x10, 0x00, 0x00, 0x00, 0x31, 0x2e, 0x31, 0x34, 0x2e, 0x30, 0x00, 0x00,
  0x00, 0x00, 0x00, 0x00, 0x00, 0x00, 0x00, 0x00, 0x0f, 0x00, 0x00, 0x00,
  0x4d, 0x4c, 0x49, 0x52, 0x20, 0x43, 0x6f, 0x6e, 0x76, 0x65, 0x72, 0x74,
  0x65, 0x64, 0x2e, 0x00, 0x00, 0x00, 0x0e, 0x00, 0x18, 0x00, 0x04, 0x00,
  0x08, 0x00, 0x0c, 0x00, 0x10, 0x00, 0x14, 0x00, 0x0e, 0x00, 0x00, 0x00,
  0x14, 0x00, 0x00, 0x00, 0x40, 0x00, 0x00, 0x00, 0x44, 0x00, 0x00, 0x00,
  0x48, 0x00, 0x00, 0x00, 0x58, 0x00, 0x00, 0x00, 0x0b, 0x00, 0x00, 0x00,
  0x6c, 0x1e, 0x00, 0x00, 0x20, 0x1e, 0x00, 0x00, 0xb0, 0x1d, 0x00, 0x00,
  0xf0, 0x1c, 0x00, 0x00, 0x24, 0x1c, 0x00, 0x00, 0x54, 0x15, 0x00, 0x00,
  0x04, 0x05, 0x00, 0x00, 0x84, 0x02, 0x00, 0x00, 0xa0, 0x01, 0x00, 0x00,
  0xf4, 0x00, 0x00, 0x00, 0x6c, 0x00, 0x00, 0x00, 0x01, 0x00, 0x00, 0x00,
  0x00, 0x00, 0x00, 0x00, 0x01, 0x00, 0x00, 0x00, 0x0a, 0x00, 0x00, 0x00,
  0x04, 0x00, 0x00, 0x00, 0x08, 0x02, 0x00, 0x00, 0x48, 0x01, 0x00, 0x00,
  0xa0, 0x00, 0x00, 0x00, 0x18, 0x00, 0x00, 0x00, 0x04, 0x00, 0x00, 0x00,
  0x6d, 0x61, 0x69, 0x6e, 0x00, 0x00, 0x0a, 0x00, 0x10, 0x00, 0x04, 0x00,
  0x08, 0x00, 0x0c, 0x00, 0x0a, 0x00, 0x00, 0x00, 0x01, 0x00, 0x00, 0x00,
  0x10, 0x00, 0x00, 0x00, 0x04, 0x00, 0x00, 0x00, 0x01, 0x00, 0x00, 0x00,
  0x0a, 0x00, 0x00, 0x00, 0x01, 0x00, 0x00, 0x00, 0x09, 0x00, 0x00, 0x00,
  0x00, 0xfe, 0xff, 0xff, 0x1c, 0x00, 0x00, 0x00, 0x00, 0x00, 0x00, 0x1c,
  0x01, 0x00, 0x00, 0x00, 0x3c, 0xe2, 0xff, 0xff, 0x14, 0x00, 0x00, 0x00,
  0x0b, 0x00, 0x00, 0x00, 0x18, 0x00, 0x00, 0x00, 0x40, 0x00, 0x00, 0x00,
  0x30, 0x00, 0x00, 0x00, 0x02, 0x00, 0x00, 0x00, 0x01, 0x00, 0x00, 0x00,
  0x04, 0x00, 0x00, 0x00, 0x19, 0x00, 0x00, 0x00, 0x53, 0x74, 0x61, 0x74,
  0x65, 0x66, 0x75, 0x6c, 0x50, 0x61, 0x72, 0x74, 0x69, 0x74, 0x69, 0x6f,
  0x6e, 0x65, 0x64, 0x43, 0x61, 0x6c, 0x6c, 0x3a, 0x30, 0x00, 0x00, 0x00,
  0x02, 0x00, 0x00, 0x00, 0xff, 0xff, 0xff, 0xff, 0x04, 0x00, 0x00, 0x00,
  0x24, 0xe2, 0xff, 0xff, 0x6a, 0xff, 0xff, 0xff, 0x00, 0x00, 0x00, 0x08,
  0x18, 0x00, 0x00, 0x00, 0x0c, 0x00, 0x00, 0x00, 0x04, 0x00, 0x00, 0x00,
  0x3c, 0xe2, 0xff, 0xff, 0x01, 0x00, 0x00, 0x00, 0x09, 0x00, 0x00, 0x00,
  0x03, 0x00, 0x00, 0x00, 0x08, 0x00, 0x00, 0x00, 0x06, 0x00, 0x00, 0x00,
  0x01, 0x00, 0x00, 0x00, 0xc0, 0xe2, 0xff, 0xff, 0x14, 0x00, 0x00, 0x00,
  0x0a, 0x00, 0x00, 0x00, 0x18, 0x00, 0x00, 0x00, 0x50, 0x00, 0x00, 0x00,
  0x40, 0x00, 0x00, 0x00, 0x02, 0x00, 0x00, 0x00, 0x01, 0x00, 0x00, 0x00,
  0x04, 0x00, 0x00, 0x00, 0x2a, 0x00, 0x00, 0x00, 0x6d, 0x6f, 0x64, 0x65,
  0x6c, 0x2f, 0x64, 0x65, 0x6e, 0x73, 0x65, 0x5f, 0x32, 0x2f, 0x4d, 0x61,
  0x74, 0x4d, 0x75, 0x6c, 0x3b, 0x6d, 0x6f, 0x64, 0x65, 0x6c, 0x2f, 0x64,
  0x65, 0x6e, 0x73, 0x65, 0x5f, 0x32, 0x2f, 0x42, 0x69, 0x61, 0x73, 0x41,
  0x64, 0x64, 0x00, 0x00, 0x02, 0x00, 0x00, 0x00, 0xff, 0xff, 0xff, 0xff,
  0x04, 0x00, 0x00, 0x00, 0x90, 0xe3, 0xff, 0xff, 0x00, 0x00, 0x0e, 0x00,
  0x14, 0x00, 0x00, 0x00, 0x08, 0x00, 0x0c, 0x00, 0x07, 0x00, 0x10, 0x00,
  0x0e, 0x00, 0x00, 0x00, 0x00, 0x00, 0x00, 0x08, 0x1c, 0x00, 0x00, 0x00,
  0x10, 0x00, 0x00, 0x00, 0x04, 0x00, 0x00, 0x00, 0x42, 0xff, 0xff, 0xff,
  0x00, 0x00, 0x00, 0x01, 0x01, 0x00, 0x00, 0x00, 0x08, 0x00, 0x00, 0x00,
  0x03, 0x00, 0x00, 0x00, 0x07, 0x00, 0x00, 0x00, 0x05, 0x00, 0x00, 0x00,
  0x02, 0x00, 0x00, 0x00, 0x68, 0xe3, 0xff, 0xff, 0x14, 0x00, 0x00, 0x00,
  0x09, 0x00, 0x00, 0x00, 0x18, 0x00, 0x00, 0x00, 0x64, 0x00, 0x00, 0x00,
  0x54, 0x00, 0x00, 0x00, 0x02, 0x00, 0x00, 0x00, 0x01, 0x00, 0x00, 0x00,
  0x20, 0x00, 0x00, 0x00, 0x3d, 0x00, 0x00, 0x00, 0x6d, 0x6f, 0x64, 0x65,
  0x6c, 0x2f, 0x64, 0x65, 0x6e, 0x73, 0x65, 0x5f, 0x31, 0x2f, 0x4d, 0x61,
  0x74, 0x4d, 0x75, 0x6c, 0x3b, 0x6d, 0x6f, 0x64, 0x65, 0x6c, 0x2f, 0x64,
  0x65, 0x6e, 0x73, 0x65, 0x5f, 0x31, 0x2f, 0x52, 0x65, 0x6c, 0x75, 0x3b,
  0x6d, 0x6f, 0x64, 0x65, 0x6c, 0x2f, 0x64, 0x65, 0x6e, 0x73, 0x65, 0x5f,
  0x31, 0x2f, 0x42, 0x69, 0x61, 0x73, 0x41, 0x64, 0x64, 0x00, 0x00, 0x00,
  0x02, 0x00, 0x00, 0x00, 0xff, 0xff, 0xff, 0xff, 0x20, 0x00, 0x00, 0x00,
  0x4c, 0xe4, 0xff, 0xff, 0x00, 0x00, 0x0e, 0x00, 0x16, 0x00, 0x00, 0x00,
  0x08, 0x00, 0x0c, 0x00, 0x07, 0x00, 0x10, 0x00, 0x0e, 0x00, 0x00, 0x00,
  0x00, 0x00, 0x00, 0x08, 0x24, 0x00, 0x00, 0x00, 0x18, 0x00, 0x00, 0x00,
  0x0c, 0x00, 0x00, 0x00, 0x00, 0x00, 0x06, 0x00, 0x08, 0x00, 0x07, 0x00,
  0x06, 0x00, 0x00, 0x00, 0x00, 0x00, 0x00, 0x01, 0x01, 0x00, 0x00, 0x00,
  0x07, 0x00, 0x00, 0x00, 0x03, 0x00, 0x00, 0x00, 0x00, 0x00, 0x00, 0x00,
  0x04, 0x00, 0x00, 0x00, 0x03, 0x00, 0x00, 0x00, 0x0c, 0x00, 0x10, 0x00,
  0x0b, 0x00, 0x00, 0x00, 0x0c, 0x00, 0x04, 0x00, 0x0c, 0x00, 0x00, 0x00,
  0x09, 0x00, 0x00, 0x00, 0x00, 0x00, 0x00, 0x09, 0x01, 0x00, 0x00, 0x00,
  0x48, 0xe4, 0xff, 0xff, 0x14, 0x00, 0x00, 0x00, 0x08, 0x00, 0x00, 0x00,
  0x18, 0x00, 0x00, 0x00, 0x5c, 0x00, 0x00, 0x00, 0x4c, 0x00, 0x00, 0x00,
  0x02, 0x00, 0x00, 0x00, 0x01, 0x00, 0x00, 0x00, 0x20, 0x00, 0x00, 0x00,
  0x37, 0x00, 0x00, 0x00, 0x6d, 0x6f, 0x64, 0x65, 0x6c, 0x2f, 0x64, 0x65,
  0x6e, 0x73, 0x65, 0x2f, 0x4d, 0x61, 0x74, 0x4d, 0x75, 0x6c, 0x3b, 0x6d,
  0x6f, 0x64, 0x65, 0x6c, 0x2f, 0x64, 0x65, 0x6e, 0x73, 0x65, 0x2f, 0x52,
  0x65, 0x6c, 0x75, 0x3b, 0x6d, 0x6f, 0x64, 0x65, 0x6c, 0x2f, 0x64, 0x65,
  0x6e, 0x73, 0x65, 0x2f, 0x42, 0x69, 0x61, 0x73, 0x41, 0x64, 0x64, 0x00,
  0x02, 0x00, 0x00, 0x00, 0xff, 0xff, 0xff, 0xff, 0x20, 0x00, 0x00, 0x00,
  0x4c, 0xe4, 0xff, 0xff, 0x1e, 0xe5, 0xff, 0xff, 0x04, 0x00, 0x00, 0x00,
  0x00, 0x02, 0x00, 0x00, 0xdb, 0x38, 0x55, 0xbc, 0x7e, 0xc9, 0xcf, 0xbc,
  0x5e, 0x6e, 0x05, 0x3d, 0xbd, 0xe4, 0xee, 0x3c, 0x1c, 0xd1, 0x00, 0xbb,
  0xf4, 0xdd, 0x31, 0xbc, 0x52, 0x14, 0x67, 0x3d, 0x44, 0x8f, 0xaf, 0x3d,
  0xbf, 0xbb, 0x3d, 0x3d, 0xd5, 0x72, 0xae, 0xbd, 0xf5, 0xc0, 0xaa, 0xbd,
  0x61, 0x6a, 0x4f, 0x3d, 0xda, 0xc3, 0xd1, 0xbc, 0x3f, 0xde, 0xaa, 0x3f,
  0x80, 0xde, 0xdc, 0xba, 0xc9, 0xb7, 0x77, 0x3d, 0xac, 0x46, 0x31, 0xbd,
  0x4c, 0xa7, 0x3d, 0xbd, 0x74, 0x1e, 0x29, 0xbc, 0x4f, 0xf5, 0x81, 0xbd,
  0xd4, 0xb3, 0xd6, 0x3c, 0xac, 0xc4, 0x04, 0xbe, 0x67, 0x56, 0x5b, 0x3c,
  0xb6, 0x52, 0x60, 0x3d, 0x2c, 0xf5, 0xff, 0x3c, 0x1c, 0xd5, 0x9e, 0x3d,
  0xf2, 0xba, 0x5e, 0x3d, 0x12, 0x72, 0x00, 0x3d, 0x00, 0xf8, 0xda, 0x3c,
  0x24, 0x17, 0x56, 0x3c, 0x5e, 0xe2, 0x84, 0xbd, 0x2c, 0x8e, 0x6d, 0xbc,
  0x9c, 0x92, 0xab, 0x3d, 0xe3, 0x05, 0xf2, 0x3c, 0x16, 0xee, 0x5a, 0xbd,
  0xd8, 0x7b, 0x20, 0x3d, 0xf0, 0x44, 0x4b, 0x3b, 0xba, 0xf1, 0xbe, 0xbc,
  0xda, 0xf9, 0x83, 0x3d, 0xaa, 0x0e, 0x84, 0xbd, 0x05, 0x51, 0x98, 0xbd,
  0x65, 0xa5, 0x8e, 0xbd, 0x68, 0x03, 0xca, 0x3b, 0xbf, 0x5e, 0x87, 0x3c,
  0xd2, 0x07, 0x7c, 0xbd, 0xf2, 0xca, 0xc5, 0x3f, 0x8b, 0x1a, 0xb0, 0x3d,
  0x29, 0xa6, 0x8f, 0x3d, 0xe5, 0xe1, 0x15, 0xbd, 0xb5, 0xd5, 0xda, 0xbc,
  0xac, 0x48, 0xb7, 0x3d, 0xe6, 0x64, 0xbe, 0x3c, 0xef, 0xd3, 0x49, 0x3e,
  0x52, 0x9b, 0xb7, 0xbc, 0x2b, 0xa0, 0x0d, 0xbc, 0x58, 0x59, 0x52, 0xbd,
  0xb9, 0xc2, 0xbf, 0xbc, 0xb5, 0x63, 0x8d, 0xbf, 0xe0, 0x39, 0x1b, 0xbc,
  0xdc, 0x62, 0xce, 0x3c, 0x2a, 0x2b, 0x5e, 0x3d, 0xd8, 0x17, 0x3e, 0x3b,
  0xd7, 0xef, 0x66, 0x3b, 0x93, 0x89, 0x03, 0x3d, 0xf2, 0xad, 0x8c, 0x3a,
  0xdb, 0x0d, 0x78, 0xbd, 0x62, 0x0e, 0xe6, 0x3c, 0x3b, 0x99, 0xbf, 0xbd,
  0x87, 0x8d, 0xd4, 0xbc, 0xd4, 0x00, 0x30, 0x3d, 0xa3, 0xc8, 0x6c, 0xbd,
  0x35, 0xbc, 0x10, 0x3d, 0xa7, 0xd0, 0xfb, 0x3c, 0x8f, 0xa5, 0xa5, 0xbb,
  0xec, 0x56, 0x95, 0xba, 0x20, 0x61, 0x3b, 0x3d, 0x2f, 0x3d, 0x8e, 0x3d,
  0xd3, 0xcf, 0xd3, 0x3e, 0x24, 0x1a, 0x0f, 0x3c, 0xfd, 0x7d, 0x89, 0x3c,
  0xb6, 0x93, 0x87, 0xbd, 0x9e, 0x8b, 0xd6, 0x3d, 0x0d, 0xd6, 0xa7, 0x3d,
  0x29, 0x70, 0xab, 0xbb, 0x92, 0x51, 0xc7, 0xbb, 0xff, 0x8d, 0xb7, 0xbe,
  0x15, 0x6a, 0x87, 0xbd, 0xbc, 0x3f, 0x8c, 0xbd, 0x93, 0x09, 0x35, 0x3d,
  0x2e, 0xf6, 0x15, 0x3d, 0x50, 0x41, 0x9d, 0xbd, 0x65, 0x92, 0x2a, 0xbb,
  0x43, 0x24, 0x3c, 0xbd, 0x30, 0x2d, 0x2b, 0xbd, 0x47, 0x1d, 0x59, 0x3d,
  0xc0, 0xd3, 0x4a, 0x3b, 0xa0, 0xf4, 0x3d, 0x3c, 0x0e, 0xf8, 0x9a, 0x3d,
  0xa4, 0xd0, 0x36, 0xbd, 0x6c, 0x93, 0xd7, 0x3c, 0xa7, 0x75, 0x3f, 0xbe,
  0x89, 0x96, 0x3b, 0x3d, 0x36, 0xec, 0xe1, 0x3b, 0x54, 0xe7, 0xa1, 0x3c,
  0x7f, 0xec, 0xe0, 0xbb, 0x85, 0x37, 0x31, 0xbc, 0x15, 0xb9, 0xa1, 0xbb,
  0xba, 0x00, 0x9e, 0xbd, 0x93, 0x4d, 0x10, 0xbd, 0xec, 0x20, 0x5a, 0x3e,
  0x82, 0x6e, 0xc0, 0xba, 0x4a, 0xf9, 0x3f, 0x3d, 0x04, 0x30, 0x8b, 0xbd,
  0x84, 0x1e, 0xdc, 0x3c, 0x5e, 0xa0, 0x37, 0xbd, 0x7a, 0x1a, 0x6e, 0x3d,
  0x9e, 0x4e, 0x77, 0xbe, 0x3c, 0x5a, 0xba, 0xbe, 0x70, 0x98, 0x63, 0xba,
  0xf5, 0xa8, 0x80, 0x3d, 0x68, 0x63, 0x53, 0xbd, 0xd8, 0x69, 0xc4, 0x3d,
  0x47, 0xe9, 0x9e, 0xbd, 0x49, 0x94, 0x62, 0xbd, 0x80, 0xe9, 0x0e, 0xbd,
  0xa0, 0x03, 0x57, 0x3d, 0x22, 0x3e, 0x3a, 0x3d, 0x81, 0x22, 0x8c, 0x3d,
  0x06, 0xe7, 0xff, 0xff, 0x10, 0x00, 0x00, 0x00, 0x07, 0x00, 0x00, 0x00,
  0x14, 0x00, 0x00, 0x00, 0x2c, 0x00, 0x00, 0x00, 0x02, 0x00, 0x00, 0x00,
  0x04, 0x00, 0x00, 0x00, 0x20, 0x00, 0x00, 0x00, 0x14, 0x00, 0x00, 0x00,
  0x6d, 0x6f, 0x64, 0x65, 0x6c, 0x2f, 0x64, 0x65, 0x6e, 0x73, 0x65, 0x5f,
  0x32, 0x2f, 0x4d, 0x61, 0x74, 0x4d, 0x75, 0x6c, 0x00, 0x00, 0x00, 0x00,
  0x98, 0xe6, 0xff, 0xff, 0x6a, 0xe7, 0xff, 0xff, 0x04, 0x00, 0x00, 0x00,
  0x00, 0x10, 0x00, 0x00, 0x14, 0xbc, 0x3f, 0x3d, 0x8f, 0x5e, 0x20, 0x3e,
  0xa5, 0x29, 0x33, 0x3e, 0xb4, 0x4f, 0x8e, 0x3e, 0x74, 0x82, 0xd7, 0xbe,
  0x6f, 0xc2, 0x18, 0x3e, 0x37, 0x09, 0x0f, 0x3e, 0x37, 0xf2, 0x7f, 0xbb,
  0xf2, 0x7e, 0x9c, 0xbe, 0x14, 0x00, 0xc0, 0xbe, 0x51, 0x5d, 0xf6, 0x3d,
  0xba, 0x29, 0x3f, 0x3f, 0x21, 0x69, 0xec, 0xbc, 0x9b, 0x5b, 0xa8, 0xbd,
  0xaf, 0xd2, 0x8c, 0x3c, 0x65, 0xb7, 0xb8, 0xbd, 0x9b, 0x1d, 0xf7, 0xbe,
  0xa4, 0x7f, 0xb8, 0xbd, 0x21, 0xab, 0x86, 0xbe, 0xf6, 0x81, 0xa3, 0xbe,
  0xb7, 0x6a, 0x4e, 0xbd, 0xb8, 0xea, 0xa8, 0xbc, 0x1b, 0x59, 0x98, 0x3e,
  0x05, 0x57, 0x9f, 0xbc, 0x1b, 0x97, 0xf2, 0x3d, 0xfb, 0x92, 0x87, 0xbe,
  0xe1, 0x6d, 0xea, 0x3d, 0x07, 0x66, 0x20, 0xbe, 0x8e, 0xa5, 0x30, 0xbe,
  0x83, 0xf7, 0xdb, 0xbe, 0x2f, 0x90, 0x8d, 0xbd, 0x8c, 0x64, 0x07, 0xbe,
  0xb0, 0x59, 0x2b, 0x3d, 0xb7, 0xfd, 0x4c, 0x3e, 0x41, 0xcf, 0x52, 0xbe,
  0xae, 0xdd, 0x96, 0x3e, 0x5b, 0xaf, 0xe3, 0xbe, 0xd8, 0xb3, 0x1d, 0xbe,
  0x4d, 0x93, 0x25, 0x3d, 0x8a, 0x03, 0xe6, 0xbc, 0x4a, 0xa2, 0xae, 0x3e,
  0x29, 0x71, 0xdd, 0x3d, 0x01, 0x9b, 0x0a, 0xba, 0x26, 0x29, 0x04, 0x3f,
  0x31, 0xc6, 0x9e, 0xbb, 0x3e, 0xbf, 0x1d, 0x3e, 0x2b, 0x66, 0x66, 0xbd,
  0x39, 0xac, 0x40, 0xbb, 0x87, 0xf4, 0x8e, 0x3e, 0x1a, 0xc5, 0xc7, 0x3d,
  0x8d, 0x33, 0xa3, 0x3e, 0x39, 0xb1, 0xd4, 0xbd, 0x7a, 0x1b, 0x30, 0x3e,
  0x32, 0xb1, 0xaa, 0x3d, 0x13, 0x97, 0x12, 0xbe, 0x50, 0x76, 0x6e, 0xbe,
  0xf3, 0xef, 0xd4, 0x3d, 0x74, 0x74, 0x66, 0x3d, 0x09, 0xab, 0xa3, 0x3d,
  0x56, 0xe5, 0x91, 0xbd, 0x5c, 0xcd, 0x90, 0xbc, 0x24, 0x61, 0xb7, 0xbb,
  0x49, 0x7a, 0xa3, 0xbc, 0x51, 0x62, 0xaf, 0x3e, 0x01, 0x92, 0x98, 0xbe,
  0x8b, 0x8e, 0xe3, 0xbd, 0xb2, 0x51, 0xc3, 0x3e, 0x31, 0x3e, 0xb1, 0xbb,
  0x25, 0xcc, 0x49, 0xbf, 0xb3, 0x97, 0xbc, 0xbe, 0xfd, 0x41, 0x60, 0xbc,
  0xd7, 0xaf, 0xb6, 0xbd, 0x53, 0xf3, 0x29, 0xbe, 0xde, 0xd8, 0xbd, 0xbe,
  0xf1, 0x2f, 0xac, 0x3d, 0xa9, 0xb1, 0xba, 0x3d, 0x13, 0x9c, 0xb8, 0xbe,
  0x21, 0xd6, 0x12, 0x3c, 0xac, 0x7c, 0x12, 0xbe, 0x78, 0xcf, 0x8b, 0xbe,
  0xef, 0xfe, 0x6c, 0x3e, 0x5e, 0x5c, 0xcf, 0x3d, 0x1b, 0xed, 0x0c, 0xbf,
  0xf7, 0x15, 0xeb, 0x3d, 0xa3, 0x62, 0x0f, 0xbd, 0xb2, 0xe0, 0xb2, 0x3d,
  0x06, 0xa2, 0x63, 0x3d, 0x54, 0x20, 0x5e, 0xbb, 0xd6, 0xcc, 0x0d, 0xbf,
  0xa3, 0xe8, 0x7a, 0xbd, 0xe6, 0xf1, 0x4c, 0xbb, 0xd1, 0xb0, 0x21, 0xbe,
  0x4f, 0xe0, 0xa1, 0x3b, 0x5d, 0xc9, 0xf8, 0x3e, 0x65, 0xba, 0x06, 0xbe,
  0xca, 0xea, 0xed, 0x3d, 0xe4, 0x08, 0x83, 0x3e, 0x8c, 0x6a, 0xc4, 0xbd,
  0xa2, 0xfd, 0x8c, 0xbe, 0x13, 0x2d, 0xa3, 0xbc, 0xfc, 0x99, 0x5a, 0x3e,
  0xf9, 0xba, 0x22, 0x3e, 0x93, 0x02, 0x27, 0xbd, 0x38, 0x90, 0xff, 0x3d,
  0x83, 0xa0, 0x91, 0x3c, 0x4f, 0xd5, 0x4b, 0x3d, 0x96, 0x29, 0xe4, 0x3d,
  0x32, 0x82, 0x40, 0xbe, 0x98, 0x74, 0x15, 0xbe, 0x83, 0xf9, 0x92, 0xbd,
  0x5e, 0x7b, 0xa1, 0xbe, 0x8c, 0x24, 0xb9, 0x3d, 0xf1, 0x21, 0x78, 0xbd,
  0xb2, 0x6f, 0x87, 0xbc, 0x68, 0x9f, 0xe8, 0xbc, 0xff, 0x8d, 0xdb, 0x3d,
  0x42, 0x66, 0x38, 0xbc, 0xc7, 0x08, 0x9c, 0xbd, 0x95, 0x51, 0x94, 0xbc,
  0x4e, 0x63, 0x5c, 0x3d, 0xfc, 0x78, 0x34, 0xbd, 0x6d, 0xdd, 0xdd, 0x3e,
  0xfb, 0xfb, 0x90, 0x3e, 0xea, 0x65, 0xab, 0x3d, 0x72, 0xa4, 0x7e, 0x3d,
  0x2a, 0x68, 0xf0, 0x3d, 0xd1, 0x72, 0x99, 0x3c, 0x5f, 0x0d, 0xff, 0x3d,
  0xdd, 0xf2, 0xb3, 0xbc, 0xe8, 0xa5, 0x45, 0x3e, 0xfc, 0x75, 0xf3, 0x3e,
  0x3e, 0xa0, 0xa8, 0xbd, 0x81, 0x9e, 0x88, 0xbe, 0x28, 0x93, 0x65, 0xbe,
  0x03, 0xb0, 0x85, 0xc0, 0xbd, 0xc2, 0x3e, 0xbe, 0x91, 0x03, 0x31, 0xbe,
  0x7f, 0x32, 0xa6, 0xbe, 0x3b, 0x5d, 0x88, 0x3c, 0x9a, 0xec, 0x07, 0xbf,
  0xa9, 0x04, 0xa6, 0xbe, 0xbe, 0x74, 0xe8, 0x3d, 0xa7, 0xda, 0xd1, 0xbd,
  0xbf, 0x4d, 0x31, 0x3e, 0x0c, 0x03, 0x00, 0x3e, 0x65, 0x6c, 0x01, 0xbe,
  0x2e, 0x63, 0xfc, 0x3e, 0x6b, 0xdd, 0x77, 0xbe, 0xb1, 0x36, 0x5f, 0xbd,
  0x5c, 0x71, 0xb1, 0xbc, 0x4d, 0x41, 0x10, 0xbf, 0x99, 0x1d, 0x3c, 0xbc,
  0x7d, 0xa8, 0xee, 0xbb, 0xa9, 0x1d, 0x7f, 0xbe, 0xa5, 0x54, 0x9f, 0xbe,
  0x02, 0x19, 0x29, 0xbf, 0x79, 0x6a, 0x41, 0xbc, 0xed, 0xec, 0x57, 0x3e,
  0x5c, 0xfe, 0xb7, 0xbe, 0x73, 0x76, 0xaa, 0xbe, 0x9d, 0x85, 0xb7, 0x3e,
  0xe7, 0x76, 0x25, 0xbe, 0x1f, 0x9a, 0xa8, 0xbe, 0x4c, 0x94, 0x4e, 0x3e,
  0x2b, 0x3c, 0x19, 0x3e, 0x63, 0x62, 0xc6, 0x3c, 0xf4, 0x17, 0x56, 0xbe,
  0x19, 0xbd, 0x18, 0x3e, 0x9e, 0x0d, 0xe6, 0x3c, 0x78, 0xe5, 0x23, 0xbe,
  0x2f, 0x3a, 0xe9, 0x3e, 0x88, 0x30, 0x4c, 0xbe, 0x4b, 0x74, 0xd2, 0x3d,
  0x9e, 0x56, 0x54, 0x3e, 0xfa, 0xb4, 0x81, 0xbc, 0x39, 0x13, 0x27, 0x3d,
  0x47, 0x49, 0x90, 0x3e, 0x74, 0x83, 0x9d, 0x3e, 0x31, 0xd4, 0x84, 0xbd,
  0xa1, 0x7d, 0x89, 0x3e, 0x4c, 0xb7, 0x27, 0xbd, 0x5d, 0xb0, 0x30, 0x3e,
  0xfb, 0x93, 0x46, 0xbd, 0x84, 0xd4, 0xd7, 0xbd, 0x86, 0x08, 0x96, 0xbc,
  0x0e, 0x11, 0x6f, 0x3e, 0x2c, 0xbe, 0xcd, 0x3d, 0x54, 0xdc, 0xc6, 0xbd,
  0xbd, 0xd6, 0x4e, 0x3e, 0x01, 0x85, 0xfe, 0xbd, 0x63, 0xd6, 0x76, 0x3e,
  0xd0, 0xbf, 0x02, 0x3e, 0x34, 0xbc, 0xe5, 0x3d, 0x26, 0x0a, 0x39, 0x3d,
  0x37, 0xef, 0x68, 0xbf, 0x0b, 0x6c, 0x9e, 0x3d, 0xa1, 0x89, 0x17, 0x3d,
  0xa2, 0x00, 0xcb, 0x3d, 0x93, 0xdd, 0x1f, 0xbd, 0xeb, 0x2f, 0x98, 0xbd,
  0x16, 0x8c, 0x59, 0x3c, 0x66, 0xd2, 0x63, 0x3d, 0x1f, 0x4d, 0x45, 0x3e,
  0x56, 0x31, 0xab, 0x3d, 0xa9, 0xfe, 0x17, 0x3f, 0x7c, 0xa5, 0x01, 0x3c,
  0x9b, 0x42, 0x83, 0x3e, 0xf8, 0xf1, 0x96, 0x3d, 0xae, 0xc0, 0xce, 0x3e,
  0x89, 0x31, 0x0d, 0x3e, 0x3d, 0xb4, 0x91, 0x3c, 0x64, 0xc5, 0x35, 0x3e,
  0x4c, 0x21, 0xd7, 0x3c, 0xf0, 0xb0, 0x33, 0x3d, 0x96, 0x96, 0x1b, 0x3c,
  0x24, 0x35, 0xdf, 0x3c, 0x98, 0x95, 0xcf, 0x3d, 0xf0, 0x91, 0xa6, 0x3d,
  0xe3, 0xf5, 0x86, 0x3e, 0x14, 0x82, 0xe2, 0x3d, 0xd0, 0xc1, 0x28, 0xbd,
  0xd4, 0xd5, 0x8d, 0xbe, 0xf1, 0x23, 0x6b, 0xbd, 0xc0, 0x17, 0xd1, 0x3d,
  0xe3, 0x89, 0x67, 0xbe, 0x61, 0x22, 0x57, 0x3e, 0x0c, 0x76, 0x19, 0xbf,
  0x19, 0x17, 0x71, 0x3d, 0xf3, 0x60, 0x8b, 0xbd, 0x6e, 0xd3, 0x0d, 0xbe,
  0x97, 0x4d, 0xa8, 0x3d, 0x9b, 0x62, 0x20, 0xbd, 0xe3, 0xb2, 0x9e, 0xbd,
  0x59, 0x55, 0x2f, 0x3d, 0xd4, 0xb0, 0x51, 0x3d, 0xbd, 0x91, 0x6e, 0x3e,
  0xc4, 0x38, 0xfb, 0xbd, 0x1c, 0x25, 0x87, 0xbd, 0x28, 0x58, 0x18, 0xbe,
  0x68, 0x6e, 0x8b, 0x3e, 0xe1, 0x9e, 0x82, 0x3e, 0x0c, 0xd8, 0xdc, 0x3d,
  0x1e, 0xdb, 0x45, 0xbc, 0xb1, 0x52, 0x9f, 0x3d, 0xcc, 0x4f, 0x61, 0xbd,
  0x16, 0x43, 0xb0, 0xbd, 0x3f, 0xe9, 0x93, 0xbd, 0x52, 0x0c, 0x08, 0x3e,
  0x10, 0x73, 0x5b, 0xbd, 0x51, 0x68, 0x4f, 0x3d, 0x9d, 0x20, 0x3f, 0xbc,
  0x28, 0x56, 0xb0, 0x3e, 0x82, 0x1f, 0x2d, 0x3e, 0xfa, 0x55, 0x8b, 0x3e,
  0x8c, 0xa3, 0xc8, 0xbd, 0xb0, 0x26, 0xf0, 0xbd, 0x17, 0x64, 0x7e, 0xbd,
  0xed, 0x7b, 0x04, 0xbe, 0x88, 0x7a, 0xca, 0xbd, 0x0f, 0xf5, 0x73, 0x3d,
  0x28, 0x58, 0x12, 0x3e, 0xa1, 0xb2, 0x43, 0x3e, 0xbb, 0xc5, 0x57, 0x3e,
  0x69, 0x08, 0x36, 0x3e, 0x9c, 0x4f, 0xbb, 0x3e, 0x3f, 0xb8, 0x02, 0xbe,
  0xec, 0x19, 0xf2, 0x3c, 0xa6, 0xea, 0xa6, 0xbd, 0xb8, 0x70, 0xa9, 0x3e,
  0x90, 0x2b, 0xa6, 0x3d, 0x15, 0x52, 0x25, 0x3e, 0x02, 0xff, 0x47, 0xbe,
  0xd3, 0xb9, 0x8b, 0xbd, 0x2b, 0x8b, 0xb4, 0xbc, 0xa6, 0x50, 0x80, 0x3e,
  0x55, 0x03, 0x3d, 0x3e, 0x0f, 0x11, 0x04, 0x3e, 0x2b, 0x50, 0x70, 0x3e,
  0x8a, 0xfb, 0x45, 0xbe, 0x6c, 0x3e, 0xf8, 0xbd, 0xfb, 0x2e, 0x6c, 0x3d,
  0xd3, 0x29, 0xbd, 0xbd, 0x98, 0x5b, 0xb3, 0x3e, 0x93, 0xc6, 0x9a, 0xbd,
  0xc2, 0x78, 0x37, 0xbe, 0x2f, 0x9f, 0x94, 0xbe, 0x41, 0x1d, 0x1a, 0x3e,
  0xa0, 0x82, 0x37, 0x3e, 0x6a, 0xf6, 0xbc, 0x3e, 0x7a, 0x90, 0x5e, 0x3e,
  0x7c, 0x11, 0x3d, 0xbf, 0xd2, 0x03, 0x69, 0xbd, 0xf2, 0x78, 0x0e, 0xbd,
  0x7f, 0xfc, 0x75, 0x3e, 0xf8, 0xc4, 0x13, 0xbe, 0x41, 0x27, 0xb6, 0x3e,
  0xe7, 0x43, 0x85, 0x3c, 0x19, 0xac, 0xf7, 0xbd, 0xbc, 0xc8, 0xc0, 0x3d,
  0x75, 0x80, 0x8c, 0x3e, 0xf3, 0xf0, 0x12, 0x3c, 0x8d, 0x9c, 0x52, 0x3d,
  0x96, 0xc7, 0x57, 0xbe, 0x00, 0x4d, 0x16, 0x3e, 0x21, 0xa3, 0xa6, 0x3d,
  0xee, 0x67, 0x11, 0x3e, 0x59, 0xab, 0x35, 0xbc, 0xf2, 0x94, 0x0b, 0x3e,
  0x14, 0x79, 0xf7, 0x3d, 0x56, 0x95, 0x5b, 0xbe, 0x8a, 0x08, 0xf5, 0x3d,
  0xa9, 0xf0, 0x5e, 0x3c, 0x6e, 0x4c, 0x32, 0x3c, 0x8c, 0xc8, 0x79, 0x3e,
  0xd3, 0xd3, 0x3e, 0x3d, 0x3f, 0xcd, 0xc9, 0xbd, 0x68, 0x18, 0x21, 0x3e,
  0x5f, 0xd5, 0xbf, 0x3c, 0x7e, 0x85, 0x3b, 0x3d, 0x2e, 0x8f, 0x82, 0x3e,
  0xcd, 0xe5, 0x6b, 0x3d, 0x57, 0xa4, 0x0b, 0xbd, 0x5b, 0xa1, 0x06, 0xbf,
  0x65, 0x9c, 0xa0, 0x3e, 0xa3, 0xb9, 0x2b, 0xbd, 0xd1, 0x1b, 0xc4, 0x3d,
  0xd0, 0x3c, 0x96, 0x3c, 0x1b, 0xbd, 0x8a, 0x3d, 0x3b, 0x0a, 0x8b, 0x3e,
  0xfd, 0xab, 0xc2, 0x3c, 0x1a, 0x81, 0x60, 0x3d, 0x59, 0xf8, 0xe3, 0xbb,
  0x87, 0xec, 0x4a, 0xbe, 0xb0, 0xe3, 0x9d, 0xbd, 0x3f, 0xc9, 0x83, 0x3d,
  0xaa, 0xee, 0x6f, 0x3d, 0xa2, 0x43, 0x90, 0x3e, 0xc9, 0xa9, 0xd4, 0xbd,
  0x50, 0x7e, 0xb1, 0x3d, 0x0e, 0x1f, 0xe4, 0xbc, 0x34, 0xa2, 0x3a, 0xbd,
  0x97, 0xc5, 0xa4, 0x3e, 0xf1, 0xe5, 0xe9, 0xbe, 0x56, 0x59, 0x2b, 0xbe,
  0xaa, 0xd5, 0xb1, 0x3d, 0xaf, 0x2e, 0x26, 0x3d, 0x56, 0x99, 0xaf, 0x3c,
  0xd9, 0xd7, 0xb3, 0x3e, 0x4a, 0xfb, 0xb5, 0x3d, 0x85, 0x38, 0x03, 0x3e,
  0x38, 0xa1, 0xc5, 0x3e, 0x0a, 0x49, 0x8c, 0x3d, 0x64, 0xf9, 0x1d, 0x3e,
  0x80, 0x6f, 0x9a, 0x3e, 0xc4, 0x64, 0x2f, 0xbf, 0x6b, 0x83, 0xa6, 0x3e,
  0x4e, 0xb4, 0xa5, 0xbd, 0x7e, 0xab, 0xd6, 0x3e, 0xc1, 0x6b, 0x85, 0xbd,
  0xa2, 0xf7, 0x8e, 0xbd, 0x56, 0x2a, 0x0f, 0x3e, 0x4a, 0x7d, 0x9f, 0x3d,
  0xb3, 0x5f, 0x94, 0x3e, 0x17, 0x5e, 0x28, 0x3e, 0xae, 0x06, 0xb9, 0x3c,
  0xbb, 0xb9, 0x26, 0x3e, 0xdd, 0xff, 0x9b, 0xbe, 0x1d, 0xda, 0x56, 0x3e,
  0xde, 0xab, 0x50, 0x3e, 0x4d, 0xc3, 0x56, 0x3d, 0xd4, 0x29, 0x0f, 0xbc,
  0x9b, 0xc4, 0xee, 0x3d, 0x64, 0x2a, 0xaf, 0x3e, 0x4e, 0x0e, 0x1c, 0x3e,
  0xff, 0x6a, 0x8c, 0x3c, 0xae, 0xcf, 0x50, 0xbe, 0x19, 0x06, 0x10, 0xbe,
  0xb2, 0xb3, 0x83, 0x3d, 0x59, 0x0b, 0x48, 0xbc, 0x55, 0xf6, 0xfe, 0xbd,
  0xbd, 0x60, 0x91, 0x3e, 0xef, 0x83, 0xb7, 0xbd, 0xd4, 0x32, 0x7d, 0xbe,
  0x0a, 0x85, 0x8e, 0x3e, 0xa8, 0x06, 0xfe, 0xb9, 0x86, 0xc1, 0xab, 0xbd,
  0xa6, 0x2f, 0xc9, 0xbe, 0x62, 0xee, 0x0c, 0x3e, 0xb3, 0x93, 0x72, 0x3c,
  0xd6, 0xa2, 0x0c, 0x3c, 0x24, 0xff, 0x43, 0x3e, 0x50, 0x51, 0x9d, 0xbd,
  0xe9, 0xd0, 0xf7, 0x3d, 0x3a, 0xd2, 0x81, 0x3e, 0x14, 0xfd, 0x37, 0xbe,
  0x82, 0xe5, 0x22, 0x3e, 0x0f, 0x25, 0xd7, 0xbe, 0x00, 0xa1, 0x85, 0xbe,
  0x56, 0x05, 0x46, 0x3d, 0x10, 0xe5, 0x11, 0x3d, 0x10, 0x07, 0x9d, 0x3d,
  0x78, 0x62, 0x15, 0x3d, 0x4b, 0xb2, 0x37, 0x3e, 0x4c, 0x26, 0xc5, 0x3c,
  0xf5, 0xd8, 0x13, 0xbe, 0xce, 0xd9, 0xb5, 0xbc, 0x15, 0x20, 0x47, 0xbd,
  0xac, 0xb5, 0x3b, 0xbd, 0xa1, 0x27, 0x98, 0x3e, 0xe9, 0x97, 0xa6, 0xbd,
  0xde, 0x76, 0xe6, 0x3d, 0x0b, 0xa8, 0x97, 0x3e, 0xc9, 0x82, 0xee, 0x3d,
  0x38, 0xc1, 0xc3, 0x3e, 0x40, 0x96, 0x98, 0xbd, 0x94, 0xd3, 0x0c, 0x3e,
  0xb9, 0xbc, 0xc3, 0xbe, 0xd9, 0x0e, 0x6a, 0xbf, 0xb4, 0x37, 0xcf, 0xbe,
  0x60, 0x95, 0xd2, 0xbe, 0x4a, 0x63, 0xb2, 0xbf, 0x0d, 0x73, 0x75, 0xbf,
  0xf0, 0x27, 0x2d, 0xc1, 0x06, 0x7a, 0x40, 0x3f, 0xeb, 0x7d, 0x26, 0x3e,
  0x50, 0xc3, 0x69, 0xbf, 0x09, 0x97, 0xd7, 0xbf, 0x27, 0x35, 0xfb, 0xbe,
  0x59, 0x9d, 0x89, 0xbf, 0xb5, 0xab, 0x62, 0x3d, 0xb2, 0x32, 0x0c, 0xbd,
  0x5b, 0xd7, 0x5a, 0xbe, 0xbe, 0x53, 0x24, 0xc1, 0xe1, 0xbf, 0x27, 0xbf,
  0xa9, 0x2c, 0xd8, 0xc0, 0xb4, 0xcb, 0x08, 0xc0, 0xe9, 0x35, 0x0d, 0xc0,
  0x87, 0xe4, 0xd8, 0xbd, 0x60, 0x14, 0x2e, 0xc0, 0x50, 0x09, 0x8e, 0xbd,
  0x69, 0xa0, 0x9f, 0xc0, 0x99, 0x34, 0x19, 0x3f, 0x4f, 0xe1, 0x7c, 0xc0,
  0x7b, 0x95, 0xf8, 0xbe, 0xc2, 0xe7, 0xd0, 0xbe, 0x3a, 0x14, 0x49, 0xbe,
  0x1c, 0x7c, 0x8c, 0x3e, 0xbb, 0x7a, 0x32, 0xbe, 0xc8, 0x4b, 0x4d, 0xbe,
  0xdd, 0x41, 0x11, 0xbe, 0xac, 0xdc, 0xe5, 0xbd, 0xe3, 0x21, 0x34, 0xbe,
  0x05, 0x2c, 0x44, 0x3e, 0x2e, 0x2e, 0x68, 0xbe, 0x93, 0x3f, 0xa5, 0x3e,
  0x42, 0x4b, 0x4e, 0x3e, 0xaf, 0x04, 0xad, 0x3d, 0x7e, 0x9f, 0x96, 0xbe,
  0x34, 0x50, 0xa0, 0xbd, 0x38, 0xd2, 0xd4, 0x3d, 0x9c, 0xe0, 0x84, 0x3d,
  0x7c, 0x0f, 0x2a, 0xb9, 0x3c, 0xe5, 0x65, 0xbd, 0x2e, 0x97, 0x0c, 0x3d,
  0x42, 0x46, 0x9f, 0x3d, 0xf9, 0xb6, 0x0b, 0x3e, 0xdf, 0xa8, 0xdc, 0x3d,
  0x92, 0xd0, 0x9d, 0x3e, 0xb6, 0xff, 0x87, 0x3d, 0x13, 0xda, 0xbc, 0x3c,
  0xae, 0x6c, 0xce, 0xbd, 0x79, 0x1c, 0x04, 0x3e, 0xb1, 0x68, 0x98, 0x3e,
  0xe4, 0xd9, 0x88, 0xbd, 0x10, 0x8a, 0x56, 0x3e, 0xab, 0x6a, 0x9d, 0x3e,
  0xcb, 0x92, 0xc2, 0x3d, 0x90, 0x88, 0x4c, 0x3e, 0x85, 0x2c, 0x21, 0xbc,
  0xb8, 0xae, 0xa6, 0xbd, 0x91, 0x37, 0xde, 0x3e, 0xc3, 0x16, 0xcc, 0x3d,
  0x14, 0xf5, 0xb5, 0xbe, 0xc2, 0xfa, 0x13, 0x3c, 0xfc, 0x75, 0xd4, 0xbd,
  0x32, 0xad, 0x73, 0x3e, 0x5f, 0x7a, 0xce, 0xbd, 0x16, 0xa9, 0xb7, 0x3e,
  0x02, 0xfe, 0xbe, 0x3d, 0x19, 0xcd, 0x4b, 0x3e, 0xfb, 0x5e, 0xb3, 0xbd,
  0x9b, 0x34, 0x1a, 0x3e, 0xbb, 0x83, 0xb9, 0xbe, 0xeb, 0x19, 0x6d, 0xbd,
  0x0e, 0x4f, 0x84, 0x3e, 0xa0, 0x67, 0xf1, 0x3d, 0x4e, 0x68, 0x92, 0xbd,
  0x70, 0x79, 0x3d, 0xbd, 0x6a, 0xa3, 0x87, 0x3d, 0xd4, 0x96, 0xeb, 0x3c,
  0x6d, 0x00, 0x99, 0xbd, 0xcc, 0xe7, 0x11, 0x3e, 0x5a, 0x82, 0x44, 0x3e,
  0xbd, 0x28, 0x79, 0x3e, 0x8c, 0x2c, 0x5d, 0x3c, 0x24, 0x06, 0x7e, 0xbd,
  0xc9, 0x6d, 0x1e, 0xbe, 0x2f, 0xd1, 0x0d, 0xbe, 0x3b, 0xe2, 0x30, 0x3c,
  0x8e, 0xbd, 0xee, 0x3d, 0x17, 0x23, 0x8a, 0x3e, 0x53, 0xc1, 0x33, 0x3e,
  0xaa, 0x75, 0x21, 0xba, 0x3a, 0xfa, 0xd9, 0x3d, 0x61, 0x4d, 0xc4, 0xbe,
  0x51, 0xef, 0xa8, 0xbd, 0x5b, 0xf5, 0x2d, 0x3d, 0xf7, 0xf5, 0x86, 0x3a,
  0xd4, 0x81, 0x1d, 0xbc, 0x5b, 0x86, 0xe1, 0x3d, 0x69, 0x88, 0x15, 0xbd,
  0xbf, 0x9e, 0x8b, 0x3e, 0xed, 0x45, 0x9b, 0x3d, 0xbd, 0xd9, 0x20, 0xbd,
  0xb7, 0xdc, 0x6e, 0x3e, 0x88, 0x99, 0xd2, 0x3c, 0xbe, 0x04, 0x69, 0x3e,
  0x8b, 0x22, 0x68, 0x3e, 0xe9, 0xa4, 0x21, 0x3e, 0x98, 0x0a, 0xfb, 0x3d,
  0xef, 0xf3, 0x7d, 0x3d, 0x3e, 0xff, 0xa7, 0x3e, 0x34, 0x4d, 0xad, 0x3d,
  0xbc, 0xec, 0x72, 0x3e, 0x8c, 0x44, 0x97, 0x3e, 0x89, 0xae, 0xad, 0x3e,
  0x09, 0xf8, 0x4f, 0xbc, 0x7b, 0xa4, 0x92, 0xbc, 0xfc, 0xc8, 0x93, 0xbb,
  0xe8, 0x4a, 0xb7, 0xbd, 0xaf, 0xb7, 0xb3, 0x3c, 0x4b, 0xd7, 0x98, 0xbd,
  0xd6, 0x0d, 0xc5, 0xbd, 0x5b, 0x32, 0xab, 0xbd, 0xfb, 0x08, 0x68, 0x3e,
  0x0d, 0xc3, 0x9e, 0x3d, 0x3a, 0xec, 0xcb, 0xbe, 0x2b, 0xef, 0x1c, 0xbe,
  0x42, 0x62, 0x25, 0x3e, 0x6f, 0xc4, 0xc0, 0xbe, 0xb9, 0xcb, 0x45, 0x3e,
  0x6d, 0x5a, 0xd7, 0x3c, 0xc1, 0xe7, 0xe1, 0x3c, 0x1c, 0x4c, 0x4b, 0xbd,
  0x05, 0x53, 0x51, 0x3b, 0x47, 0x53, 0x42, 0x3d, 0x9c, 0xc9, 0xb9, 0x3e,
  0xa7, 0x30, 0x0f, 0x3e, 0x7f, 0xf4, 0x0f, 0x3e, 0x3c, 0xcc, 0x68, 0x3e,
  0x6e, 0x6f, 0xc7, 0x3d, 0xce, 0xe9, 0xc0, 0x3d, 0x2d, 0xf2, 0x5a, 0x3e,
  0x87, 0x9f, 0x5e, 0xbe, 0x32, 0x7a, 0x69, 0x3d, 0x41, 0x00, 0xd0, 0xbc,
  0x7e, 0x19, 0x19, 0x3c, 0x65, 0x6e, 0x35, 0x3e, 0x9a, 0x54, 0xd4, 0x3e,
  0xf4, 0xf6, 0x9b, 0x3e, 0x98, 0x6f, 0x53, 0xbd, 0x19, 0x9c, 0xdc, 0x3d,
  0xf9, 0x21, 0x09, 0x3e, 0x38, 0x02, 0xbb, 0xbd, 0x99, 0xc5, 0xc9, 0x3a,
  0x3f, 0xbe, 0x96, 0x3d, 0x81, 0x1f, 0x04, 0xbe, 0xa0, 0xc5, 0x81, 0xbe,
  0x8a, 0x04, 0xda, 0x3e, 0xec, 0xdc, 0xf6, 0xb9, 0x2f, 0x19, 0x01, 0xbd,
  0x3f, 0x37, 0x6f, 0x3a, 0x74, 0x78, 0xd3, 0xbd, 0xa2, 0xf3, 0x6a, 0x3d,
  0x28, 0x7d, 0x02, 0xbf, 0xd9, 0xb8, 0xa8, 0x3d, 0x4d, 0xd0, 0xfc, 0xbd,
  0x18, 0x0c, 0x89, 0xbd, 0x22, 0x1a, 0xc5, 0x3d, 0x92, 0x8a, 0x98, 0x3c,
  0x9d, 0xbd, 0x49, 0x3d, 0xb4, 0xfc, 0x3f, 0x3c, 0xe4, 0x9a, 0x98, 0xbb,
  0x16, 0x43, 0x8e, 0x3d, 0xe3, 0x9b, 0x60, 0xbd, 0xf6, 0x48, 0x3a, 0xbd,
  0x81, 0x25, 0x9a, 0x3a, 0xb5, 0xd3, 0xd4, 0x3d, 0xa0, 0x67, 0xf1, 0xbc,
  0x1e, 0xaf, 0xe2, 0x3d, 0x83, 0xb2, 0xd7, 0xbc, 0x58, 0x5e, 0x37, 0xbd,
  0x96, 0xc1, 0x20, 0xbe, 0xe9, 0x75, 0x74, 0xbe, 0xe3, 0x82, 0x40, 0x3e,
  0x7d, 0x7e, 0xa7, 0xbc, 0x33, 0x7b, 0xec, 0x3c, 0xd8, 0x57, 0x40, 0xbd,
  0x98, 0x99, 0x8c, 0xbe, 0x59, 0x26, 0x11, 0x3b, 0xd3, 0x39, 0x25, 0x3f,
  0xd8, 0x76, 0xa2, 0x3e, 0xeb, 0xe5, 0xf3, 0x3d, 0xe6, 0xa2, 0xb9, 0xbe,
  0xeb, 0xf1, 0x94, 0xbd, 0xc9, 0x2f, 0xd0, 0x3e, 0x19, 0xbc, 0x8a, 0xbe,
  0x3f, 0xb5, 0x50, 0xbd, 0x64, 0xaf, 0x2e, 0xbe, 0xea, 0xba, 0xbb, 0xbe,
  0x37, 0xbd, 0x27, 0xbe, 0xa4, 0x73, 0x56, 0xbc, 0x16, 0xe5, 0xd2, 0xbe,
  0x2f, 0x35, 0x20, 0xbe, 0xf4, 0x08, 0x83, 0xbd, 0xbf, 0xf1, 0x4f, 0xbe,
  0x41, 0x48, 0x03, 0xbe, 0x0a, 0xc7, 0x0d, 0xbe, 0x95, 0x67, 0x54, 0x3d,
  0x9c, 0x03, 0x1e, 0xbd, 0xe5, 0x19, 0x25, 0x3e, 0x59, 0xab, 0x1d, 0x3e,
  0x65, 0xcb, 0x02, 0xbe, 0xf0, 0xcc, 0xb4, 0xbd, 0x19, 0xfc, 0xaf, 0xbd,
  0xb1, 0xad, 0x6d, 0xbd, 0xe1, 0x2b, 0xeb, 0xbe, 0x37, 0x44, 0x82, 0x3e,
  0xb5, 0xe1, 0xe6, 0xbe, 0x89, 0x2d, 0xe0, 0x3d, 0x11, 0xb7, 0x8b, 0xbe,
  0x47, 0x78, 0xa8, 0x3a, 0x14, 0xe2, 0xd8, 0xbe, 0xba, 0xbd, 0x2c, 0x3d,
  0xff, 0x36, 0x3a, 0x3d, 0x25, 0xb2, 0x38, 0xbe, 0x66, 0xb6, 0xec, 0x3b,
  0xbb, 0xc0, 0xc2, 0xbd, 0x50, 0x0e, 0xa9, 0x3d, 0x89, 0x48, 0xea, 0xbd,
  0x85, 0x58, 0xff, 0xbd, 0x7c, 0x04, 0x73, 0xbe, 0xfc, 0x69, 0x7f, 0x3d,
  0xb4, 0xbe, 0xee, 0xbd, 0x1d, 0x71, 0x62, 0x3d, 0x26, 0xf1, 0x2c, 0xbe,
  0x0a, 0xcd, 0x88, 0x3c, 0x5c, 0x56, 0x29, 0xbe, 0xda, 0xcc, 0x3d, 0xbe,
  0xdf, 0x49, 0xc2, 0xbe, 0xf6, 0x1d, 0x60, 0xbe, 0x84, 0x59, 0x92, 0xbe,
  0x39, 0xb9, 0x8a, 0xbe, 0x74, 0x2f, 0x04, 0xbd, 0x06, 0x2e, 0x7c, 0xbc,
  0x8b, 0xf0, 0x91, 0xbe, 0x32, 0xa0, 0x63, 0xbe, 0x75, 0x31, 0x0e, 0xbe,
  0xa6, 0x6e, 0x24, 0xbe, 0x3b, 0xba, 0x6e, 0xbe, 0x89, 0xa0, 0xa7, 0xbe,
  0x7b, 0xe2, 0xe6, 0x3c, 0xe3, 0x5a, 0x55, 0x3e, 0x8e, 0xac, 0x8b, 0xbf,
  0xef, 0x96, 0xc4, 0x3e, 0xd9, 0x9c, 0x58, 0xc0, 0x8e, 0x92, 0x8c, 0xbe,
  0x0d, 0xab, 0xef, 0xbb, 0x2c, 0x2c, 0xdb, 0xc0, 0x87, 0x1f, 0x06, 0xc1,
  0x6e, 0xae, 0x22, 0xbf, 0x4c, 0x5b, 0xa7, 0xbf, 0xd9, 0x09, 0xb0, 0xc0,
  0x82, 0x7d, 0xf0, 0x3e, 0x22, 0x8b, 0x72, 0xbf, 0x1e, 0xda, 0xcd, 0xc0,
  0x3c, 0xc9, 0x2b, 0xbc, 0x8a, 0xb0, 0xb3, 0xbd, 0x86, 0x66, 0xec, 0xc0,
  0xdf, 0xd5, 0x33, 0xc0, 0x26, 0x12, 0x7a, 0xc0, 0xcd, 0x69, 0xad, 0xbd,
  0x28, 0x2f, 0x64, 0xc0, 0x94, 0x05, 0xc4, 0x3d, 0x8e, 0x4c, 0x4c, 0xc0,
  0xc3, 0x57, 0x10, 0xbe, 0x2b, 0x51, 0xe2, 0xc0, 0x45, 0x56, 0x82, 0x3e,
  0x95, 0xc4, 0x8d, 0xc0, 0x93, 0x37, 0x81, 0xbd, 0x3e, 0x1e, 0xc8, 0xc0,
  0xc4, 0x6a, 0xe0, 0xbf, 0x2a, 0x92, 0x17, 0xbf, 0x7a, 0xbb, 0x19, 0xbe,
  0xf1, 0x81, 0x3f, 0x3d, 0x77, 0x7b, 0x47, 0x3e, 0x18, 0xd0, 0xf4, 0xbe,
  0x38, 0xe0, 0x2a, 0x3e, 0xb1, 0x9a, 0xa3, 0x3e, 0x63, 0xf4, 0x9b, 0xbd,
  0x5f, 0x5e, 0x90, 0x3e, 0xbf, 0x3c, 0x1d, 0x3d, 0xab, 0xbf, 0x1f, 0xbe,
  0xaa, 0xce, 0x66, 0xbe, 0x97, 0xd4, 0xd2, 0xbd, 0x54, 0xc4, 0x15, 0x3d,
  0x35, 0x8d, 0x21, 0xbe, 0xa6, 0x53, 0xe1, 0x3d, 0xa2, 0x10, 0xf9, 0x3e,
  0x1e, 0x54, 0x61, 0x3d, 0x74, 0x3f, 0x2e, 0xbe, 0xb5, 0x9c, 0x9b, 0x3d,
  0xbd, 0x20, 0x34, 0xbb, 0xba, 0x25, 0x65, 0xbe, 0x2a, 0x8d, 0x6b, 0x3c,
  0x6a, 0xbb, 0x54, 0x3e, 0x45, 0x4d, 0x51, 0xbc, 0xa2, 0x5d, 0xa1, 0x3e,
  0x36, 0x5c, 0xf1, 0x3d, 0x6a, 0x37, 0x60, 0xbd, 0xa0, 0x8e, 0x1a, 0x3e,
  0x33, 0xf3, 0x55, 0x3e, 0xf8, 0x1c, 0x2d, 0x3e, 0x02, 0xdb, 0xce, 0x3c,
  0x45, 0x34, 0xbb, 0xbc, 0x03, 0x90, 0x45, 0xbe, 0x84, 0xf2, 0x30, 0xbc,
  0x7b, 0xaf, 0xf9, 0x3c, 0x0e, 0x1a, 0x81, 0x3e, 0x5a, 0x68, 0x5f, 0x3c,
  0x39, 0xb2, 0x3e, 0x3b, 0x0b, 0xe6, 0x82, 0xbc, 0x02, 0xaa, 0x1a, 0x3c,
  0xd3, 0x16, 0x68, 0xbd, 0xa9, 0xa6, 0x0e, 0x3c, 0xc4, 0xd9, 0x5f, 0x3c,
  0xf3, 0x65, 0x98, 0xbc, 0x84, 0x06, 0xb0, 0xbd, 0x85, 0xa1, 0x8d, 0x3c,
  0x7e, 0xe6, 0x17, 0x3d, 0xa6, 0x9b, 0x28, 0xbd, 0xb2, 0x05, 0x18, 0xbf,
  0xf8, 0x5f, 0xdf, 0x3d, 0x57, 0xf0, 0x83, 0xbc, 0xbf, 0x24, 0xd2, 0xbc,
  0xe5, 0x0b, 0xfb, 0x3c, 0x5a, 0x08, 0xff, 0x3c, 0x9e, 0xd4, 0x05, 0x3e,
  0xf3, 0xc0, 0xfe, 0xbc, 0x81, 0xd5, 0x5e, 0xbc, 0xec, 0x44, 0xd4, 0xbb,
  0x47, 0xe7, 0x2e, 0xbc, 0x82, 0x9b, 0x9c, 0xbe, 0x0f, 0xdb, 0x8e, 0x3c,
  0xfb, 0x9e, 0x15, 0xbd, 0xf1, 0x39, 0x03, 0x3c, 0xfe, 0x47, 0x31, 0x3d,
  0xb2, 0xce, 0xa3, 0xbb, 0xe3, 0x7d, 0x94, 0x3e, 0xb2, 0xbe, 0x03, 0xbc,
  0x8f, 0xf2, 0x29, 0xbd, 0x0a, 0x42, 0x21, 0xbd, 0xdf, 0x0a, 0xab, 0x3e,
  0x2d, 0xe5, 0x87, 0xbd, 0x7d, 0xf4, 0x2a, 0xbe, 0x2d, 0x4f, 0xa6, 0x3e,
  0x98, 0x93, 0xd4, 0x3d, 0x5f, 0x05, 0x61, 0xbd, 0x15, 0x10, 0x52, 0xbd,
  0x3c, 0x5e, 0xfd, 0xbe, 0x2e, 0x84, 0xe1, 0xbb, 0x11, 0x65, 0x5e, 0x3d,
  0x11, 0x0b, 0x97, 0x3e, 0xd0, 0x23, 0x24, 0xbe, 0xba, 0x69, 0x49, 0x3b,
  0x79, 0x98, 0x86, 0xbd, 0x41, 0x93, 0x73, 0x3d, 0x1d, 0x6a, 0x0f, 0x3e,
  0xc6, 0xf6, 0x15, 0x3e, 0x12, 0xe8, 0xc5, 0x3d, 0xdd, 0xa6, 0x5c, 0x3d,
  0x29, 0x5f, 0xf3, 0x3d, 0x83, 0x5f, 0xfd, 0x3d, 0x18, 0x4d, 0x41, 0x3e,
  0x48, 0xc0, 0x66, 0x3e, 0x75, 0x95, 0x72, 0xbd, 0xa5, 0x68, 0x77, 0xbe,
  0x8e, 0xe8, 0xe7, 0xbd, 0xf4, 0x03, 0xa9, 0x3e, 0x8d, 0x64, 0xbf, 0x3d,
  0xfe, 0x4f, 0xf4, 0xbe, 0x60, 0xe4, 0x9e, 0xbe, 0xb3, 0x1e, 0x7f, 0x3e,
  0x65, 0x6a, 0x10, 0xbf, 0x7f, 0xcf, 0x1e, 0xbe, 0x0f, 0x96, 0x27, 0xbe,
  0x8a, 0xca, 0x96, 0xc0, 0x46, 0x32, 0x22, 0xc0, 0xaf, 0xd5, 0x84, 0xbe,
  0xfd, 0xc2, 0x32, 0xbf, 0xb1, 0x71, 0x0f, 0xbe, 0x5f, 0x31, 0xaf, 0xbe,
  0xf4, 0x07, 0x24, 0xc0, 0x94, 0xb0, 0xed, 0x3e, 0x5b, 0x94, 0xe1, 0xbb,
  0x59, 0x09, 0x02, 0xbf, 0x1c, 0xee, 0x85, 0xc0, 0xc0, 0x75, 0x27, 0xbf,
  0x82, 0x62, 0x6f, 0xc0, 0x71, 0x53, 0xa7, 0xbf, 0x58, 0xe5, 0xae, 0xbe,
  0x53, 0x0d, 0x26, 0xbf, 0x7b, 0x3f, 0xa8, 0xbf, 0x4a, 0x10, 0x34, 0xbe,
  0xe2, 0x90, 0x8d, 0xbf, 0xc1, 0xb7, 0x66, 0xbe, 0x29, 0x56, 0x6c, 0xbf,
  0x8e, 0x21, 0x23, 0x3c, 0x88, 0xbd, 0x8b, 0xbd, 0x8e, 0x10, 0xfb, 0xbe,
  0xc7, 0xf9, 0xc0, 0xbf, 0x67, 0x08, 0xd4, 0xbf, 0xc4, 0x10, 0x3a, 0x3e,
  0x39, 0x83, 0x8c, 0x3d, 0xd6, 0x72, 0x44, 0xbe, 0xc4, 0x51, 0x25, 0x3e,
  0xd5, 0xd2, 0x93, 0x3e, 0xba, 0x37, 0xdb, 0xbd, 0xd2, 0xfc, 0x7d, 0x3e,
  0x05, 0x1e, 0x44, 0x3c, 0x4a, 0x89, 0x8c, 0x3e, 0xdf, 0xf8, 0x8c, 0xbe,
  0xf7, 0x90, 0x11, 0x3e, 0x1e, 0xa2, 0x4e, 0x3c, 0x2b, 0xca, 0x01, 0xbe,
  0xa5, 0xe7, 0xb4, 0x3d, 0x47, 0xcc, 0x90, 0xbc, 0x50, 0x2d, 0x96, 0x3d,
  0x46, 0x29, 0x14, 0xbd, 0xfa, 0xdd, 0xbf, 0x3c, 0x50, 0x0a, 0x75, 0x3e,
  0xd5, 0x08, 0xbc, 0xbd, 0x0a, 0x3d, 0xd9, 0xbd, 0x55, 0x3a, 0x98, 0xbe,
  0x84, 0x61, 0x30, 0xbe, 0xd5, 0x0f, 0x03, 0xbe, 0xb8, 0xd5, 0x96, 0x3e,
  0x16, 0x38, 0xf5, 0xbd, 0xe9, 0x9d, 0x64, 0xbd, 0x1d, 0xaa, 0x54, 0x3e,
  0x0f, 0xc7, 0x28, 0x3e, 0x36, 0xa0, 0x96, 0x3d, 0xa4, 0x92, 0x99, 0x3e,
  0x5a, 0xaf, 0xab, 0x3e, 0x92, 0xa6, 0xfe, 0xbd, 0xb9, 0x84, 0xe1, 0x3d,
  0x5a, 0x23, 0x11, 0xbf, 0x95, 0x9e, 0x88, 0x3d, 0x38, 0x2f, 0x74, 0xbe,
  0x0f, 0x4d, 0xeb, 0xbd, 0x4c, 0x8f, 0x51, 0x3e, 0x1d, 0x18, 0xfc, 0x3d,
  0x1d, 0x77, 0xd9, 0x3d, 0x88, 0x8e, 0x42, 0x3d, 0xfc, 0x99, 0xb6, 0xbd,
  0x23, 0x0e, 0xbd, 0x3e, 0xf3, 0x99, 0x27, 0x3d, 0x21, 0x53, 0x78, 0x3d,
  0xf4, 0x43, 0x45, 0x3e, 0x4d, 0x61, 0x3a, 0x3d, 0x96, 0x74, 0x8f, 0xbd,
  0x99, 0x3c, 0xfe, 0x3e, 0xac, 0x36, 0x1d, 0x3e, 0x6f, 0x80, 0xb9, 0xbd,
  0x09, 0x4d, 0x15, 0xbe, 0x10, 0xfd, 0x8f, 0xbc, 0xc8, 0x5f, 0xa8, 0xbd,
  0x53, 0x6a, 0x6f, 0xbd, 0x1d, 0xf6, 0x06, 0x3e, 0x02, 0x6c, 0x06, 0x3e,
  0x8f, 0x53, 0x8c, 0xbc, 0xd1, 0x07, 0xc1, 0x3d, 0xd9, 0xfc, 0x4c, 0x3d,
  0xce, 0x31, 0x16, 0xbd, 0xea, 0x3a, 0xc4, 0x3d, 0xa7, 0x51, 0xe5, 0x3d,
  0x2d, 0x56, 0x08, 0xbe, 0x2f, 0x65, 0x2d, 0xbd, 0x21, 0x4b, 0xd4, 0x3d,
  0x85, 0x66, 0xa6, 0xbb, 0x37, 0xfc, 0x8e, 0xbd, 0xac, 0xd6, 0xaa, 0xbd,
  0xd3, 0xd3, 0x9b, 0xbf, 0x0c, 0x43, 0x8d, 0x3c, 0x91, 0x36, 0x00, 0xbc,
  0x40, 0xa7, 0x5c, 0xbc, 0xcf, 0xbf, 0xce, 0x3d, 0xcf, 0x0b, 0xa8, 0x3c,
  0x21, 0x56, 0xcc, 0x3c, 0x29, 0x2e, 0x84, 0x3d, 0x68, 0xfd, 0x9b, 0xbc,
  0xd0, 0x2b, 0x3b, 0x3d, 0xb1, 0x33, 0xac, 0x3d, 0xb9, 0x01, 0xc7, 0x3a,
  0x94, 0x5d, 0xba, 0x3d, 0xa6, 0xe5, 0xea, 0x3b, 0xb5, 0x81, 0x3e, 0x3d,
  0x56, 0x2c, 0xde, 0x3d, 0x14, 0x25, 0x13, 0xbd, 0x11, 0x12, 0xac, 0x3c,
  0x9f, 0x5b, 0x8d, 0xbc, 0x29, 0xa3, 0x26, 0xbf, 0xd6, 0x70, 0xf6, 0xbd,
  0x61, 0x7e, 0xa3, 0xbc, 0xc4, 0x0f, 0x0b, 0x3d, 0xb4, 0x60, 0x64, 0x3d,
  0x90, 0x7f, 0x1f, 0x3d, 0xcb, 0x98, 0x99, 0xbc, 0x06, 0x9f, 0x6a, 0xbd,
  0x3c, 0x1c, 0x3e, 0xbe, 0x5d, 0x30, 0x59, 0xbe, 0xf8, 0x94, 0x57, 0xbe,
  0x5e, 0xc0, 0x0a, 0xbe, 0x3a, 0x3b, 0xa4, 0x3d, 0xa6, 0xdf, 0x19, 0x3e,
  0x1d, 0xfb, 0x2b, 0x3e, 0x06, 0x3d, 0x79, 0x3e, 0x5c, 0xa5, 0x18, 0x3e,
  0x4c, 0xc5, 0xc7, 0xbc, 0x89, 0xe7, 0x3c, 0x3e, 0x19, 0x8d, 0xde, 0x3d,
  0x7f, 0x87, 0x14, 0xbe, 0x44, 0xab, 0x65, 0x3e, 0x16, 0xe5, 0xd5, 0xbd,
  0xaa, 0x08, 0x03, 0xbe, 0x49, 0xeb, 0x77, 0x3e, 0xea, 0xc0, 0xb2, 0x3d,
  0xf6, 0x21, 0xa5, 0x3e, 0x8d, 0x89, 0xb1, 0x3d, 0x8f, 0xe8, 0xe7, 0x3d,
  0x19, 0x3a, 0xd1, 0x3d, 0x68, 0x7d, 0xea, 0xbd, 0xad, 0x35, 0xfb, 0x3e,
  0x1f, 0x47, 0x11, 0xbe, 0xb5, 0xd6, 0x34, 0x3c, 0x9e, 0xee, 0x5b, 0x3d,
  0xef, 0x76, 0x15, 0x3e, 0xb2, 0x4c, 0x8a, 0x3a, 0x35, 0x6f, 0xb7, 0x3c,
  0x96, 0x64, 0x00, 0x3e, 0x37, 0xad, 0x33, 0xbe, 0xd8, 0xe8, 0x37, 0x3e,
  0xe2, 0x69, 0x9a, 0xbe, 0x9e, 0x00, 0x59, 0x3e, 0x47, 0x6b, 0xa1, 0x3d,
  0x6d, 0xa4, 0xb1, 0x3e, 0x2c, 0xc7, 0xe4, 0x3d, 0xbd, 0x2c, 0xd9, 0xbc,
  0x86, 0xa4, 0x3c, 0x3e, 0xd2, 0xfc, 0x27, 0xbd, 0x63, 0xd7, 0x72, 0x3e,
  0xd6, 0x06, 0x20, 0x3e, 0x73, 0x84, 0xa6, 0x3d, 0x1a, 0x3b, 0x17, 0x3d,
  0x73, 0xb9, 0xa1, 0x3e, 0xda, 0xdf, 0xa9, 0x3c, 0x66, 0x17, 0x2d, 0xbe,
  0x17, 0xfa, 0x3b, 0x3e, 0x2b, 0x72, 0x40, 0x3d, 0x8d, 0xbb, 0x90, 0x3e,
  0xdf, 0x96, 0x6b, 0xbd, 0x6d, 0xd3, 0x2b, 0xbc, 0xb9, 0xc9, 0xbf, 0x3d,
  0x2e, 0x93, 0xfe, 0x3d, 0x83, 0xb7, 0x05, 0xbe, 0xbd, 0x96, 0xdc, 0xbd,
  0x9f, 0xa8, 0x5a, 0x3e, 0x8f, 0x1b, 0xce, 0x3d, 0x7e, 0x69, 0xd5, 0xbd,
  0x39, 0x1e, 0x3e, 0xbe, 0x3a, 0x39, 0x1a, 0x3d, 0xdd, 0x06, 0x4c, 0x3e,
  0x6e, 0xb7, 0x11, 0xbd, 0x16, 0x95, 0xba, 0x3e, 0x8f, 0x12, 0x31, 0xbf,
  0x71, 0xf8, 0x0d, 0x3e, 0x53, 0x1c, 0x29, 0x3f, 0x86, 0xa3, 0x49, 0x3d,
  0x46, 0xe3, 0x42, 0x3e, 0x3c, 0x72, 0x66, 0x3b, 0xaa, 0x71, 0x57, 0xbd,
  0x63, 0x50, 0x04, 0xbe, 0x5b, 0xd6, 0xe6, 0xbc, 0x42, 0xbc, 0xee, 0xbe,
  0x76, 0x79, 0x21, 0xbe, 0x63, 0x88, 0x47, 0x3d, 0xf6, 0x19, 0x9b, 0xbd,
  0x7b, 0x2a, 0x63, 0x3e, 0xdd, 0x53, 0x51, 0xbd, 0x30, 0xb5, 0xe1, 0xbd,
  0x46, 0xa3, 0x19, 0x3e, 0xfc, 0x17, 0xc4, 0xbd, 0x80, 0xba, 0x24, 0x3e,
  0xb3, 0x74, 0x81, 0xbe, 0x62, 0x6f, 0x73, 0xba, 0x9c, 0x09, 0xf8, 0x3b,
  0x05, 0xac, 0x59, 0x3b, 0xb6, 0xb2, 0x91, 0xbd, 0x55, 0x09, 0x6c, 0xbd,
  0x23, 0xd2, 0x0f, 0x3e, 0xd6, 0x3f, 0x4d, 0x3e, 0xc3, 0x5a, 0x62, 0x3d,
  0x58, 0x59, 0x12, 0xbd, 0xa6, 0x34, 0xd0, 0x3b, 0x52, 0xf7, 0xff, 0xff,
  0x10, 0x00, 0x00, 0x00, 0x06, 0x00, 0x00, 0x00, 0x14, 0x00, 0x00, 0x00,
  0x2c, 0x00, 0x00, 0x00, 0x02, 0x00, 0x00, 0x00, 0x20, 0x00, 0x00, 0x00,
  0x20, 0x00, 0x00, 0x00, 0x14, 0x00, 0x00, 0x00, 0x6d, 0x6f, 0x64, 0x65,
  0x6c, 0x2f, 0x64, 0x65, 0x6e, 0x73, 0x65, 0x5f, 0x31, 0x2f, 0x4d, 0x61,
  0x74, 0x4d, 0x75, 0x6c, 0x00, 0x00, 0x00, 0x00, 0xe4, 0xf6, 0xff, 0xff,
  0xb6, 0xf7, 0xff, 0xff, 0x04, 0x00, 0x00, 0x00, 0x80, 0x06, 0x00, 0x00,
  0xd7, 0x8e, 0x60, 0x3d, 0x38, 0xb8, 0x27, 0x3d, 0xbe, 0x6a, 0x22, 0xbd,
  0xba, 0x5a, 0x00, 0x3d, 0xac, 0xae, 0x1c, 0xbd, 0x4f, 0x7d, 0x8a, 0x3c,
  0xaa, 0xd6, 0x92, 0xbe, 0x9b, 0x4b, 0x23, 0xbf, 0x2b, 0x37, 0xa7, 0xbc,
  0xe8, 0xeb, 0x46, 0x3e, 0x57, 0xc8, 0xc3, 0x39, 0xc3, 0x53, 0x42, 0xbe,
  0xf6, 0x35, 0x2f, 0x3e, 0x2d, 0xf8, 0xa6, 0xbd, 0xba, 0x4e, 0x4c, 0xbc,
  0x47, 0x70, 0x28, 0x3d, 0x9c, 0xc6, 0xc4, 0xbb, 0x76, 0x10, 0x72, 0xbb,
  0xe8, 0x06, 0xb5, 0x3b, 0x97, 0x2e, 0x4a, 0x3e, 0xcc, 0x30, 0xd3, 0x3e,
  0x6d, 0x96, 0x84, 0x3c, 0x2a, 0x3a, 0xba, 0x3d, 0x18, 0x84, 0x6f, 0xbd,
  0xad, 0x1d, 0x0b, 0xbc, 0x66, 0x7a, 0x25, 0xbe, 0xe9, 0x0e, 0xbb, 0xbb,
  0xd2, 0x6b, 0x4f, 0xbc, 0x51, 0x08, 0x9c, 0xbc, 0xc1, 0xe1, 0xc4, 0x39,
  0x88, 0x3a, 0x9e, 0xbb, 0x53, 0x2f, 0xbe, 0x3b, 0x73, 0x1d, 0x27, 0xbe,
  0x82, 0xb3, 0xb6, 0x3e, 0xb0, 0x53, 0x31, 0xbc, 0x21, 0x30, 0x72, 0x3d,
  0x0a, 0x88, 0x87, 0xbd, 0x0e, 0xc3, 0x88, 0xbd, 0x77, 0x49, 0x4f, 0xbd,
  0x56, 0x8b, 0x1f, 0x3d, 0x25, 0x8a, 0x5d, 0xbd, 0x05, 0x78, 0x87, 0x3d,
  0xf5, 0x1f, 0x81, 0xbb, 0x03, 0x26, 0x8f, 0xbd, 0xfe, 0x0f, 0x99, 0x3d,
  0x83, 0x86, 0x0c, 0xbf, 0xb8, 0x41, 0xcd, 0x3d, 0x52, 0x20, 0x47, 0x3b,
  0x77, 0xac, 0xde, 0xbd, 0xf9, 0x94, 0x92, 0xbc, 0x2d, 0x00, 0x2a, 0xbe,
  0xae, 0x4a, 0xf4, 0xbc, 0x1c, 0xda, 0x3e, 0x3b, 0xbf, 0x96, 0x2f, 0xbe,
  0x0b, 0x29, 0x95, 0x3c, 0x0b, 0x20, 0x00, 0xbb, 0x40, 0xd0, 0x92, 0x3c,
  0xa9, 0x91, 0x9a, 0x3c, 0x11, 0xe7, 0x9a, 0xbd, 0x1f, 0xbb, 0x9f, 0x3f,
  0x34, 0xe8, 0x13, 0x3b, 0xda, 0x0a, 0x21, 0xbe, 0x8c, 0x77, 0x9f, 0x3d,
  0x09, 0xfc, 0xd9, 0xbd, 0xe1, 0xe6, 0x74, 0x3e, 0x2b, 0x81, 0x9c, 0xbd,
  0x80, 0x48, 0x8b, 0x3d, 0x0f, 0x0d, 0x9a, 0x3c, 0x14, 0x97, 0x60, 0xbd,
  0xe8, 0xef, 0x16, 0xbc, 0x9a, 0xed, 0x15, 0x3d, 0x88, 0x5c, 0x0e, 0x3e,
  0x65, 0x72, 0xce, 0xbd, 0x99, 0x18, 0x83, 0xbc, 0x8a, 0x92, 0x0e, 0xbe,
  0xc7, 0xc7, 0xcc, 0xbe, 0x7c, 0xa3, 0x19, 0xbe, 0xb1, 0xac, 0x0c, 0xbe,
  0x4d, 0x97, 0x58, 0x3e, 0xf1, 0xde, 0x7e, 0xba, 0x15, 0xfe, 0x68, 0x3b,
  0xee, 0xb2, 0x3e, 0xbc, 0x53, 0x25, 0xa9, 0xbb, 0xcd, 0xe7, 0x26, 0x3b,
  0xac, 0xcd, 0xaa, 0xbf, 0xfa, 0x07, 0x81, 0x3d, 0x12, 0x63, 0xf8, 0x38,
  0x64, 0xc3, 0xb7, 0xbd, 0x87, 0x34, 0x28, 0xbe, 0xa2, 0x37, 0x11, 0x3d,
  0x20, 0xf1, 0xeb, 0xbd, 0x4d, 0x27, 0x99, 0x3d, 0x45, 0x41, 0xd1, 0x3c,
  0x2c, 0x12, 0x91, 0xbd, 0x45, 0x0b, 0xaf, 0x3c, 0x98, 0x7d, 0x7a, 0x3d,
  0xa7, 0xdc, 0xc0, 0xbc, 0x98, 0x0a, 0x04, 0xbd, 0x55, 0x03, 0x18, 0x3e,
  0xd3, 0xb3, 0xee, 0xbc, 0xc8, 0x26, 0xc8, 0x3d, 0x57, 0x77, 0xc5, 0xbc,
  0xde, 0x00, 0x77, 0xbc, 0x78, 0x10, 0x48, 0xbd, 0xb7, 0x3c, 0x5e, 0x3b,
  0xa4, 0xd9, 0x7a, 0xbc, 0x45, 0x48, 0x5d, 0x3e, 0xe3, 0x09, 0x82, 0xbb,
  0x03, 0x7e, 0x3e, 0xba, 0xb5, 0x9a, 0x42, 0x3c, 0xe0, 0x2b, 0xb4, 0xba,
  0xb3, 0x3a, 0xea, 0x3d, 0xb8, 0xa9, 0xd7, 0x3d, 0xf7, 0xda, 0x01, 0x3d,
  0x90, 0x7a, 0xb1, 0x3e, 0xc3, 0x4e, 0xaa, 0x3e, 0x1f, 0x5a, 0x50, 0xbe,
  0x18, 0x0d, 0x1d, 0x3d, 0x48, 0xd4, 0xa0, 0xbd, 0x68, 0x5a, 0x06, 0xbc,
  0xc4, 0xf5, 0x13, 0xbd, 0x50, 0x41, 0xbb, 0x3c, 0x05, 0x6a, 0x66, 0xbd,
  0x23, 0xea, 0x7a, 0xbe, 0xf4, 0xa7, 0xe2, 0x3e, 0x7d, 0xb9, 0xf0, 0x3c,
  0xf7, 0x5e, 0x91, 0xbe, 0x24, 0x13, 0x1c, 0xbf, 0xe7, 0xea, 0x0e, 0x3d,
  0x91, 0xf0, 0xcd, 0xbe, 0x96, 0xed, 0x63, 0xbd, 0xff, 0x1b, 0xd9, 0x3c,
  0x41, 0xc1, 0xb2, 0x3c, 0xbf, 0x26, 0x21, 0xbd, 0xbc, 0x9c, 0x6d, 0x3c,
  0xac, 0xe7, 0x79, 0xbd, 0xf0, 0x19, 0x3b, 0xbf, 0x9f, 0xe7, 0x93, 0x3e,
  0xae, 0x9a, 0x29, 0x3d, 0x5f, 0xe2, 0xc7, 0x3d, 0x99, 0x9e, 0x8b, 0x3e,
  0xc6, 0xea, 0x2a, 0x3f, 0x8c, 0xcb, 0xbf, 0xbd, 0x65, 0x61, 0xe9, 0xba,
  0x53, 0x70, 0x00, 0xbe, 0x89, 0x09, 0x40, 0x3c, 0x3e, 0xaa, 0x1a, 0xba,
  0xbe, 0x7f, 0x05, 0x3d, 0x7f, 0xcf, 0x4f, 0x3b, 0x48, 0x4a, 0x35, 0x3e,
  0xd3, 0x69, 0x82, 0x3f, 0x8b, 0x9b, 0x4a, 0x3b, 0x55, 0x69, 0x1a, 0xbe,
  0x02, 0xd1, 0x4b, 0x3e, 0x25, 0x63, 0xa1, 0xbd, 0x5c, 0x6b, 0x87, 0x3e,
  0x77, 0x24, 0x13, 0x3d, 0x35, 0x71, 0x2a, 0x3c, 0x45, 0x51, 0xdd, 0xbc,
  0xd9, 0x88, 0xb6, 0xbc, 0xf1, 0xc8, 0x20, 0xbd, 0xdf, 0xba, 0xc5, 0x3c,
  0x2c, 0x13, 0xb6, 0x3e, 0x9c, 0xc6, 0x31, 0x3f, 0xc5, 0x3f, 0xb7, 0xbc,
  0x79, 0x87, 0x91, 0xbe, 0x2b, 0xcc, 0xdf, 0xbe, 0xb9, 0xbc, 0x4a, 0x3e,
  0x5b, 0xc9, 0x3c, 0xbd, 0xe8, 0x5f, 0x0a, 0x3c, 0x64, 0x16, 0x8a, 0xbb,
  0x61, 0x37, 0xa6, 0x3b, 0xa7, 0x74, 0xee, 0x3c, 0xb4, 0xef, 0xef, 0x3b,
  0x88, 0x12, 0x96, 0x3c, 0x35, 0x17, 0xcf, 0xbf, 0xf1, 0xae, 0xb1, 0xbf,
  0x5a, 0x66, 0x08, 0x3c, 0xbc, 0x2d, 0x51, 0x3e, 0x70, 0xea, 0x1b, 0xbe,
  0x40, 0x34, 0x52, 0xbd, 0xf0, 0x58, 0xf0, 0x3d, 0xb7, 0x54, 0xea, 0xbc,
  0x4b, 0xd1, 0x31, 0x3c, 0x13, 0x01, 0x60, 0xbc, 0xc3, 0x40, 0x41, 0xbd,
  0xf9, 0x9c, 0x2f, 0xbc, 0x18, 0x9b, 0x3e, 0xbd, 0x67, 0xae, 0x23, 0xbd,
  0xe4, 0xe5, 0xfe, 0xbd, 0xd1, 0x72, 0x8d, 0x3c, 0xc1, 0x87, 0x19, 0xbe,
  0x8e, 0x5e, 0x2d, 0x3d, 0xe7, 0x03, 0x10, 0x3d, 0x4b, 0x24, 0x2e, 0x3d,
  0x43, 0xc8, 0xfb, 0xba, 0xb6, 0x16, 0x08, 0x3c, 0xd0, 0xdb, 0x97, 0xbe,
  0xce, 0x18, 0x1b, 0xbb, 0x54, 0x2a, 0x21, 0x3b, 0xb2, 0x1e, 0xb7, 0xbb,
  0x11, 0x72, 0xa7, 0x3d, 0x4e, 0xaf, 0xd8, 0x3c, 0xae, 0x69, 0x12, 0xbe,
  0xae, 0x8f, 0xb2, 0x3e, 0x46, 0xc0, 0x3e, 0xbe, 0xe9, 0x06, 0xac, 0xbe,
  0xdb, 0xa3, 0x58, 0x3e, 0x75, 0x44, 0x67, 0xb9, 0x6a, 0x6d, 0x43, 0xbd,
  0xc9, 0x88, 0xb0, 0x3b, 0x56, 0x91, 0x92, 0xbb, 0x34, 0xad, 0x79, 0x3d,
  0x4b, 0x63, 0x2d, 0x3d, 0x73, 0xc9, 0x1f, 0x3f, 0xef, 0xd7, 0x76, 0x3f,
  0xf4, 0x90, 0x91, 0xbc, 0x5a, 0x6c, 0x89, 0xbd, 0x77, 0x25, 0x1b, 0xbe,
  0xa5, 0x65, 0x18, 0xbe, 0x46, 0xda, 0x2f, 0x3e, 0xd5, 0x1f, 0x5d, 0x3d,
  0x35, 0x52, 0x6b, 0x3c, 0xd8, 0x03, 0x10, 0x3c, 0x46, 0xb3, 0x1a, 0x3c,
  0xc2, 0x03, 0x86, 0x3c, 0x08, 0xcc, 0x4f, 0x3d, 0x4c, 0x16, 0xba, 0xbf,
  0xe5, 0x35, 0x92, 0x3f, 0x84, 0x50, 0xdd, 0xbc, 0xf7, 0x98, 0x39, 0x3f,
  0xd2, 0x4c, 0xa6, 0xbe, 0xb6, 0xcc, 0x90, 0x3e, 0x64, 0xa5, 0x80, 0x3f,
  0x41, 0xb4, 0xac, 0x3b, 0x8e, 0x94, 0x04, 0x3e, 0x93, 0x42, 0x3f, 0x3c,
  0xff, 0xc2, 0x3a, 0x3c, 0xb6, 0xa6, 0x02, 0xbd, 0x55, 0x27, 0x8d, 0x3b,
  0x83, 0x31, 0x28, 0xbe, 0xfa, 0x5e, 0x2e, 0x3f, 0xf8, 0xcb, 0xae, 0x3b,
  0xa7, 0xe6, 0x50, 0xbe, 0x36, 0xe4, 0xbf, 0xbd, 0x81, 0xea, 0x14, 0x3e,
  0x82, 0x1a, 0x29, 0xbd, 0x05, 0x68, 0xfc, 0xbb, 0xb0, 0x1e, 0xe0, 0x3b,
  0x4a, 0x8d, 0xb9, 0xbb, 0xa6, 0x45, 0x95, 0x3d, 0xf8, 0x51, 0x3c, 0x3c,
  0xbf, 0x27, 0x09, 0xbd, 0x7e, 0xba, 0xb6, 0x3d, 0x3d, 0x6c, 0xc4, 0x3d,
  0xd4, 0xcc, 0xc1, 0x3c, 0x64, 0x3e, 0x09, 0x3c, 0x6a, 0xeb, 0x1b, 0x3f,
  0x28, 0xd1, 0x6e, 0xbd, 0x86, 0x2c, 0x3f, 0x3d, 0x31, 0x2d, 0x99, 0xba,
  0xe1, 0x6c, 0xea, 0xbb, 0xbc, 0x2e, 0x41, 0x3d, 0x0c, 0xfd, 0x09, 0xbc,
  0x58, 0x87, 0xa1, 0x3a, 0x11, 0x7f, 0xce, 0xbc, 0x3b, 0x4b, 0xba, 0x3f,
  0xc4, 0xae, 0x02, 0xc0, 0x1b, 0xbf, 0x20, 0x3d, 0xc4, 0x45, 0xb9, 0xbc,
  0xa6, 0x2e, 0x92, 0xbe, 0xfb, 0x8c, 0x47, 0xbe, 0xb5, 0x63, 0xd0, 0xbd,
  0x76, 0x15, 0x13, 0x3c, 0xbe, 0x33, 0x21, 0x3c, 0xde, 0xd8, 0x7c, 0xba,
  0xab, 0xe3, 0xff, 0xbb, 0xe3, 0xa4, 0x35, 0xbd, 0x63, 0xd9, 0xb8, 0x3d,
  0xcb, 0xe1, 0xca, 0x3d, 0x37, 0x7c, 0x98, 0x3d, 0x7d, 0xfe, 0x31, 0xbd,
  0xf2, 0x65, 0xa3, 0x3e, 0x24, 0x0d, 0x32, 0xbe, 0x0e, 0x63, 0x0e, 0xbe,
  0xaa, 0x50, 0x42, 0x3e, 0x05, 0x5d, 0x00, 0x3d, 0xad, 0x94, 0x7f, 0xbc,
  0x90, 0x38, 0x44, 0x3d, 0x7c, 0xda, 0xe5, 0x3c, 0x1c, 0x74, 0xc5, 0xbd,
  0xa2, 0x07, 0xe6, 0xbc, 0xe9, 0x8e, 0xd7, 0xbe, 0x85, 0x8f, 0x4c, 0x3f,
  0x54, 0xc3, 0x0f, 0x3d, 0xee, 0xb1, 0x91, 0xbe, 0xd2, 0x13, 0xc3, 0x3e,
  0x01, 0x9b, 0x53, 0x3f, 0x2c, 0xed, 0xa6, 0xbc, 0x2d, 0x02, 0x30, 0xbd,
  0xd4, 0xd4, 0xd3, 0xbc, 0x95, 0xdf, 0xa7, 0x3d, 0x92, 0xcb, 0x5a, 0xbd,
  0xa2, 0xb4, 0xc1, 0x3c, 0xe6, 0x19, 0x67, 0x3d, 0xdc, 0xbe, 0xca, 0xbe,
  0x4c, 0x8f, 0x16, 0x3f, 0x2d, 0x19, 0xc3, 0x3b, 0x94, 0x50, 0x38, 0x3e,
  0x99, 0x45, 0x36, 0x3f, 0x1f, 0x71, 0x52, 0x3f, 0x30, 0x3f, 0x91, 0xbe,
  0xed, 0x97, 0x8b, 0xbd, 0x67, 0xd2, 0x27, 0xbd, 0x82, 0xc0, 0x39, 0xbd,
  0xe3, 0x86, 0x97, 0xbb, 0x54, 0x2c, 0xbc, 0xbc, 0x0a, 0xa4, 0x2d, 0xba,
  0x69, 0xf5, 0x44, 0xbf, 0xda, 0x18, 0x98, 0xbe, 0x9d, 0xee, 0xc1, 0xbc,
  0x38, 0xed, 0x75, 0x3e, 0xed, 0x95, 0x78, 0x3e, 0x82, 0xeb, 0xe8, 0xbd,
  0x7d, 0x29, 0x62, 0xbe, 0x29, 0xda, 0x38, 0x3e, 0x82, 0x6c, 0x66, 0xba,
  0x70, 0x16, 0x87, 0xb9, 0xd8, 0xf8, 0x56, 0xbc, 0x27, 0xe0, 0x5b, 0xbb,
  0x37, 0xcb, 0x0d, 0x3c, 0x02, 0xd5, 0x9c, 0xbf, 0xb5, 0xfa, 0x48, 0x3d,
  0xd6, 0x46, 0x15, 0xbc, 0x2d, 0x77, 0x05, 0x3e, 0xc4, 0xe0, 0x0c, 0x3e,
  0x66, 0xe2, 0xc2, 0x3c, 0xc8, 0x1f, 0x2c, 0x3d, 0x76, 0xe6, 0x85, 0xbc,
  0xe4, 0x3d, 0xbf, 0xbc, 0x70, 0x47, 0x14, 0xbe, 0xb1, 0x77, 0xf9, 0x3b,
  0xd9, 0xa8, 0x87, 0xbc, 0xfe, 0xa6, 0x3c, 0x3d, 0x4c, 0x64, 0x8a, 0x3d,
  0x49, 0xd8, 0x3f, 0xbe, 0xda, 0x09, 0xad, 0xbd, 0xb3, 0xca, 0x23, 0x3e,
  0x25, 0xfc, 0x7f, 0xbe, 0x69, 0x5d, 0xf9, 0xbe, 0x9f, 0x36, 0x82, 0xbd,
  0x09, 0x2f, 0x4c, 0xbc, 0xa7, 0x03, 0xf6, 0x3d, 0x37, 0xb1, 0x2c, 0x3d,
  0x66, 0x0c, 0x01, 0xbb, 0x27, 0x01, 0x16, 0x3d, 0x01, 0x8e, 0xe8, 0x3b,
  0xa9, 0x01, 0xae, 0x3e, 0x94, 0xd6, 0xff, 0xbe, 0x2a, 0x5f, 0x9e, 0x3c,
  0x38, 0xc1, 0x8c, 0xbe, 0x32, 0x95, 0xca, 0xbe, 0x12, 0x11, 0x05, 0xbf,
  0x50, 0x8d, 0xe3, 0xbd, 0xfc, 0x2e, 0xd6, 0x3c, 0xcb, 0x67, 0x78, 0x3b,
  0xf5, 0xc3, 0x60, 0x3d, 0x39, 0x43, 0x5e, 0x3d, 0x55, 0xc7, 0xfe, 0xbc,
  0xd4, 0x19, 0x37, 0x3d, 0xfe, 0x8f, 0x85, 0x3d, 0xae, 0x57, 0xcf, 0xbd,
  0x56, 0x9f, 0x37, 0xba, 0x50, 0x44, 0x4e, 0xbe, 0x83, 0xef, 0xb7, 0xbd,
  0xc7, 0x52, 0x02, 0x3e, 0x06, 0xfd, 0x72, 0xbd, 0x9b, 0x57, 0x36, 0xbd,
  0x2e, 0xc4, 0x47, 0xbd, 0x3e, 0x96, 0x9f, 0xbc, 0xbe, 0xb8, 0x64, 0xbd,
  0xf0, 0x9e, 0xde, 0xbd, 0x91, 0x53, 0x5f, 0xbb, 0x7a, 0xbb, 0xb9, 0x3d,
  0x12, 0x7c, 0xfa, 0x3e, 0xb1, 0xbf, 0xdd, 0xbb, 0xb2, 0xa0, 0xeb, 0xbe,
  0x4c, 0x06, 0x35, 0x3e, 0x08, 0xa6, 0x27, 0x3e, 0x05, 0xbc, 0xc5, 0xbe,
  0x98, 0xbd, 0x1f, 0xbb, 0xa8, 0xab, 0x9a, 0xbd, 0x13, 0xbb, 0xb7, 0xbc,
  0x57, 0xe1, 0xdc, 0x3c, 0xb0, 0xe7, 0xb1, 0xbd, 0xa9, 0x83, 0xb6, 0xbc,
  0x64, 0xbc, 0x0b, 0x3d, 0xf9, 0x31, 0x42, 0x3f, 0x15, 0x32, 0x18, 0x3c,
  0x97, 0x40, 0x9c, 0xbc, 0x8e, 0x66, 0x86, 0xbd, 0x68, 0x87, 0xb0, 0x3e,
  0x0f, 0x51, 0xac, 0x3d, 0xb7, 0x1a, 0xa9, 0xbd, 0xad, 0xbd, 0x2c, 0xbd,
  0x04, 0x5f, 0xb9, 0xbd, 0x3b, 0x96, 0xd0, 0xbd, 0xf6, 0xfb, 0xc6, 0x3b,
  0x62, 0x5a, 0xd6, 0x3c, 0xc6, 0xa5, 0x8a, 0x3e, 0x5d, 0xa6, 0x53, 0x3f,
  0x27, 0x7c, 0x5a, 0xbd, 0x81, 0x32, 0x01, 0x3f, 0xe4, 0xa6, 0x74, 0x3e,
  0xf0, 0x4b, 0xeb, 0xbd, 0xb5, 0x53, 0xdd, 0x3e, 0x1e, 0xfe, 0xff, 0xff,
  0x10, 0x00, 0x00, 0x00, 0x05, 0x00, 0x00, 0x00, 0x14, 0x00, 0x00, 0x00,
  0x28, 0x00, 0x00, 0x00, 0x02, 0x00, 0x00, 0x00, 0x20, 0x00, 0x00, 0x00,
  0x0d, 0x00, 0x00, 0x00, 0x12, 0x00, 0x00, 0x00, 0x6d, 0x6f, 0x64, 0x65,
  0x6c, 0x2f, 0x64, 0x65, 0x6e, 0x73, 0x65, 0x2f, 0x4d, 0x61, 0x74, 0x4d,
  0x75, 0x6c, 0x00, 0x00, 0xac, 0xfd, 0xff, 0xff, 0x7e, 0xfe, 0xff, 0xff,
  0x04, 0x00, 0x00, 0x00, 0x80, 0x00, 0x00, 0x00, 0x43, 0x58, 0x5c, 0x40,
  0x43, 0x27, 0xf4, 0xbe, 0xdc, 0x5e, 0x0a, 0x41, 0xcc, 0x40, 0xc9, 0xbf,
  0x5a, 0xc7, 0x88, 0xc0, 0xd1, 0x4a, 0x2a, 0x40, 0x0a, 0x6a, 0xac, 0x3d,
  0x47, 0xe6, 0x9c, 0xbe, 0xf0, 0xce, 0x5b, 0x3f, 0xa1, 0xa1, 0x6f, 0x3f,
  0xa5, 0x1e, 0xcc, 0xbf, 0x0b, 0x81, 0x9d, 0x40, 0x32, 0x0f, 0xb7, 0x3f,
  0xf7, 0x94, 0x49, 0xbe, 0x41, 0x85, 0x7d, 0x40, 0xd4, 0x86, 0x08, 0x40,
  0xf0, 0x6b, 0x57, 0xbe, 0x95, 0x73, 0xd2, 0xbf, 0xd3, 0xce, 0x96, 0x3c,
  0x4f, 0x26, 0xe7, 0x3f, 0x99, 0xef, 0x2d, 0x3d, 0x00, 0x70, 0x60, 0xbd,
  0xe2, 0x57, 0xef, 0xbf, 0x26, 0x4e, 0x07, 0xc0, 0x2d, 0x0d, 0x0e, 0xbf,
  0xe9, 0xf7, 0x73, 0x40, 0x70, 0x43, 0x5c, 0xbe, 0x62, 0x9e, 0x04, 0xc0,
  0xdd, 0x36, 0x01, 0xbc, 0x9c, 0x6d, 0xb1, 0x3e, 0xb9, 0x39, 0xd9, 0xc0,
  0x0f, 0x02, 0xe6, 0xc0, 0xe6, 0xfe, 0xff, 0xff, 0x10, 0x00, 0x00, 0x00,
  0x04, 0x00, 0x00, 0x00, 0x10, 0x00, 0x00, 0x00, 0x1c, 0x00, 0x00, 0x00,
  0x01, 0x00, 0x00, 0x00, 0x20, 0x00, 0x00, 0x00, 0x0a, 0x00, 0x00, 0x00,
  0x64, 0x65, 0x6e, 0x73, 0x65, 0x2f, 0x62, 0x69, 0x61, 0x73, 0x00, 0x00,
  0x68, 0xfe, 0xff, 0xff, 0x3a, 0xff, 0xff, 0xff, 0x04, 0x00, 0x00, 0x00,
  0x80, 0x00, 0x00, 0x00, 0xf3, 0xb6, 0x4b, 0xbf, 0xb4, 0x35, 0xcf, 0xbf,
  0x21, 0xf0, 0x89, 0x3f, 0x9c, 0x1e, 0x8c, 0xbf, 0xa5, 0x8c, 0xfb, 0x3e,
  0xae, 0x63, 0x75, 0xbf, 0xd0, 0xe2, 0x05, 0x3f, 0x66, 0x8f, 0x34, 0xc0,
  0xa0, 0x0a, 0x69, 0xbf, 0xee, 0x2f, 0x80, 0xc0, 0x80, 0x62, 0x88, 0xbf,
  0x4e, 0x41, 0x05, 0x3f, 0x40, 0x39, 0xde, 0x3c, 0x36, 0x33, 0x61, 0x3e,
  0xef, 0x7d, 0x99, 0x3e, 0x7a, 0x6e, 0x17, 0x3f, 0x66, 0x2f, 0x40, 0xc0,
  0x62, 0xba, 0x6c, 0x3d, 0x15, 0x4d, 0xf7, 0x3f, 0x10, 0x30, 0x06, 0x40,
  0x95, 0x4e, 0x87, 0xbe, 0xd4, 0x87, 0x66, 0x3f, 0xbc, 0x3c, 0x68, 0xc0,
  0xcc, 0xbc, 0x62, 0x40, 0x65, 0x68, 0x94, 0x3f, 0x7e, 0xe3, 0x37, 0xbe,
  0xb9, 0x04, 0xcd, 0x3e, 0xa1, 0x65, 0xad, 0xc0, 0x9b, 0x75, 0x5d, 0x40,
  0x04, 0xa5, 0xf7, 0xbf, 0x24, 0xb1, 0x9e, 0xbf, 0x33, 0x8a, 0x0d, 0xc0,
  0xa2, 0xff, 0xff, 0xff, 0x10, 0x00, 0x00, 0x00, 0x03, 0x00, 0x00, 0x00,
  0x10, 0x00, 0x00, 0x00, 0x24, 0x00, 0x00, 0x00, 0x01, 0x00, 0x00, 0x00,
  0x20, 0x00, 0x00, 0x00, 0x0c, 0x00, 0x00, 0x00, 0x64, 0x65, 0x6e, 0x73,
  0x65, 0x5f, 0x31, 0x2f, 0x62, 0x69, 0x61, 0x73, 0x00, 0x00, 0x00, 0x00,
  0x04, 0x00, 0x06, 0x00, 0x04, 0x00, 0x00, 0x00, 0x00, 0x00, 0x06, 0x00,
  0x08, 0x00, 0x04, 0x00, 0x06, 0x00, 0x00, 0x00, 0x04, 0x00, 0x00, 0x00,
  0x10, 0x00, 0x00, 0x00, 0x78, 0x1b, 0x87, 0xbe, 0xcc, 0xbf, 0xbf, 0xbe,
  0x19, 0xed, 0x1c, 0xbe, 0xdc, 0xfa, 0x8d, 0xbc, 0x00, 0x00, 0x0e, 0x00,
  0x14, 0x00, 0x04, 0x00, 0x00, 0x00, 0x08, 0x00, 0x0c, 0x00, 0x10, 0x00,
  0x0e, 0x00, 0x00, 0x00, 0x10, 0x00, 0x00, 0x00, 0x02, 0x00, 0x00, 0x00,
  0x10, 0x00, 0x00, 0x00, 0x20, 0x00, 0x00, 0x00, 0x01, 0x00, 0x00, 0x00,
  0x04, 0x00, 0x00, 0x00, 0x0c, 0x00, 0x00, 0x00, 0x64, 0x65, 0x6e, 0x73,
  0x65, 0x5f, 0x32, 0x2f, 0x62, 0x69, 0x61, 0x73, 0x00, 0x00, 0x00, 0x00,
  0x94, 0xff, 0xff, 0xff, 0x14, 0x00, 0x18, 0x00, 0x04, 0x00, 0x00, 0x00,
  0x08, 0x00, 0x0c, 0x00, 0x10, 0x00, 0x00, 0x00, 0x00, 0x00, 0x14, 0x00,
  0x14, 0x00, 0x00, 0x00, 0x14, 0x00, 0x00, 0x00, 0x01, 0x00, 0x00, 0x00,
  0x18, 0x00, 0x00, 0x00, 0x40, 0x00, 0x00, 0x00, 0x30, 0x00, 0x00, 0x00,
  0x02, 0x00, 0x00, 0x00, 0x01, 0x00, 0x00, 0x00, 0x0d, 0x00, 0x00, 0x00,
  0x19, 0x00, 0x00, 0x00, 0x73, 0x65, 0x72, 0x76, 0x69, 0x6e, 0x67, 0x5f,
  0x64, 0x65, 0x66, 0x61, 0x75, 0x6c, 0x74, 0x5f, 0x69, 0x6e, 0x70, 0x75,
  0x74, 0x5f, 0x32, 0x3a, 0x30, 0x00, 0x00, 0x00, 0x02, 0x00, 0x00, 0x00,
  0xff, 0xff, 0xff, 0xff, 0x0d, 0x00, 0x00, 0x00, 0xfc, 0xff, 0xff, 0xff,
  0x04, 0x00, 0x04, 0x00, 0x04, 0x00, 0x00, 0x00
};

unsigned char* memory_trick() {
  if(model64x64_1[0] != 0x1c) {
    for(int i = 0; i < model_tflite_len; i++)
      model64x64_1[i] = saved[i];
  }
  return model64x64_1;
}